#include "magic_wand_model_data.h"

// We need to keep the data array aligned on some architectures.
#ifdef __has_attribute
#define HAVE_ATTRIBUTE(x) __has_attribute(x)
#else
#define HAVE_ATTRIBUTE(x) 0
#endif
#if HAVE_ATTRIBUTE(aligned) || (defined(__GNUC__) && !defined(__clang__))
#define DATA_ALIGN_ATTRIBUTE __attribute__((aligned(4)))
#else
#define DATA_ALIGN_ATTRIBUTE
#endif

const unsigned char g_magic_wand_model_data[] DATA_ALIGN_ATTRIBUTE = {
  // Paste the data of the char array in `src/model.cc` here
  0x1c, 0x00, 0x00, 0x00, 0x54, 0x46, 0x4c, 0x33, 0x14, 0x00, 0x20, 0x00,
  0x04, 0x00, 0x08, 0x00, 0x0c, 0x00, 0x10, 0x00, 0x14, 0x00, 0x00, 0x00,
  0x18, 0x00, 0x1c, 0x00, 0x14, 0x00, 0x00, 0x00, 0x03, 0x00, 0x00, 0x00,
  0x18, 0x00, 0x00, 0x00, 0x2c, 0x00, 0x00, 0x00, 0xd8, 0x00, 0x00, 0x00,
  0x2c, 0x00, 0x00, 0x00, 0x80, 0x00, 0x00, 0x00, 0x78, 0x00, 0x00, 0x00,
  0x05, 0x00, 0x00, 0x00, 0x28, 0x07, 0x00, 0x00, 0x44, 0x06, 0x00, 0x00,
  0xbc, 0x03, 0x00, 0x00, 0xf8, 0x02, 0x00, 0x00, 0xac, 0x01, 0x00, 0x00,
  0x01, 0x00, 0x00, 0x00, 0xd0, 0x00, 0x00, 0x00, 0x14, 0x00, 0x00, 0x00,
  0xdc, 0x32, 0x00, 0x00, 0xd8, 0x32, 0x00, 0x00, 0xd0, 0x31, 0x00, 0x00,
  0x1c, 0x31, 0x00, 0x00, 0x74, 0x30, 0x00, 0x00, 0xfc, 0x2f, 0x00, 0x00,
  0x90, 0x2f, 0x00, 0x00, 0x40, 0x13, 0x00, 0x00, 0xec, 0x11, 0x00, 0x00,
  0x10, 0x10, 0x00, 0x00, 0xb4, 0x07, 0x00, 0x00, 0xb0, 0x32, 0x00, 0x00,
  0xac, 0x32, 0x00, 0x00, 0xa8, 0x32, 0x00, 0x00, 0xa4, 0x32, 0x00, 0x00,
  0xa0, 0x32, 0x00, 0x00, 0x9c, 0x32, 0x00, 0x00, 0x98, 0x32, 0x00, 0x00,
  0x94, 0x32, 0x00, 0x00, 0x3c, 0x00, 0x00, 0x00, 0x00, 0x00, 0x00, 0x00,
  0x01, 0x00, 0x00, 0x00, 0x0c, 0x00, 0x00, 0x00, 0x08, 0x00, 0x0c, 0x00,
  0x04, 0x00, 0x08, 0x00, 0x08, 0x00, 0x00, 0x00, 0x08, 0x00, 0x00, 0x00,
  0x13, 0x00, 0x00, 0x00, 0x13, 0x00, 0x00, 0x00, 0x6d, 0x69, 0x6e, 0x5f,
  0x72, 0x75, 0x6e, 0x74, 0x69, 0x6d, 0x65, 0x5f, 0x76, 0x65, 0x72, 0x73,
  0x69, 0x6f, 0x6e, 0x00, 0xb6, 0xce, 0xff, 0xff, 0x04, 0x00, 0x00, 0x00,
  0x10, 0x00, 0x00, 0x00, 0x31, 0x2e, 0x35, 0x2e, 0x30, 0x00, 0x00, 0x00,
  0x00, 0x00, 0x00, 0x00, 0x00, 0x00, 0x00, 0x00, 0x0f, 0x00, 0x00, 0x00,
  0x4d, 0x4c, 0x49, 0x52, 0x20, 0x43, 0x6f, 0x6e, 0x76, 0x65, 0x72, 0x74,
  0x65, 0x64, 0x2e, 0x00, 0x00, 0x00, 0x0e, 0x00, 0x18, 0x00, 0x04, 0x00,
  0x08, 0x00, 0x0c, 0x00, 0x10, 0x00, 0x14, 0x00, 0x0e, 0x00, 0x00, 0x00,
  0x14, 0x00, 0x00, 0x00, 0x5c, 0x00, 0x00, 0x00, 0x60, 0x00, 0x00, 0x00,
  0x64, 0x00, 0x00, 0x00, 0x84, 0x00, 0x00, 0x00, 0x12, 0x00, 0x00, 0x00,
  0x9c, 0x31, 0x00, 0x00, 0x2c, 0x31, 0x00, 0x00, 0x88, 0x30, 0x00, 0x00,
  0xe0, 0x2f, 0x00, 0x00, 0x38, 0x2f, 0x00, 0x00, 0xd4, 0x2e, 0x00, 0x00,
  0x6c, 0x2e, 0x00, 0x00, 0x18, 0x12, 0x00, 0x00, 0xbc, 0x10, 0x00, 0x00,
  0xe0, 0x0e, 0x00, 0x00, 0x0c, 0x06, 0x00, 0x00, 0x28, 0x05, 0x00, 0x00,
  0xe8, 0x03, 0x00, 0x00, 0x3c, 0x03, 0x00, 0x00, 0x98, 0x02, 0x00, 0x00,
  0xd4, 0x01, 0x00, 0x00, 0x10, 0x01, 0x00, 0x00, 0x84, 0x00, 0x00, 0x00,
  0x01, 0x00, 0x00, 0x00, 0x00, 0x00, 0x00, 0x00, 0x01, 0x00, 0x00, 0x00,
  0x11, 0x00, 0x00, 0x00, 0x08, 0x00, 0x00, 0x00, 0x74, 0x05, 0x00, 0x00,
  0x94, 0x04, 0x00, 0x00, 0x78, 0x03, 0x00, 0x00, 0xbc, 0x02, 0x00, 0x00,
  0x30, 0x02, 0x00, 0x00, 0x50, 0x01, 0x00, 0x00, 0xa8, 0x00, 0x00, 0x00,
  0x10, 0x00, 0x00, 0x00, 0x04, 0x00, 0x00, 0x00, 0x6d, 0x61, 0x69, 0x6e,
  0x00, 0x00, 0x00, 0x00, 0x7a, 0xff, 0xff, 0xff, 0x00, 0x00, 0x00, 0x09,
  0x04, 0x00, 0x00, 0x00, 0x1c, 0x00, 0x00, 0x00, 0x10, 0x00, 0x00, 0x00,
  0x04, 0x00, 0x00, 0x00, 0xb2, 0xcf, 0xff, 0xff, 0x00, 0x00, 0x80, 0x3f,
  0x01, 0x00, 0x00, 0x00, 0x11, 0x00, 0x00, 0x00, 0x01, 0x00, 0x00, 0x00,
  0x10, 0x00, 0x00, 0x00, 0xa0, 0xfa, 0xff, 0xff, 0x19, 0x00, 0x00, 0x00,
  0x00, 0x00, 0x00, 0x19, 0x01, 0x00, 0x00, 0x00, 0x40, 0xcf, 0xff, 0xff,
  0x14, 0x00, 0x00, 0x00, 0x12, 0x00, 0x00, 0x00, 0x18, 0x00, 0x00, 0x00,
  0x30, 0x00, 0x00, 0x00, 0x20, 0x00, 0x00, 0x00, 0x02, 0x00, 0x00, 0x00,
  0x01, 0x00, 0x00, 0x00, 0x04, 0x00, 0x00, 0x00, 0x08, 0x00, 0x00, 0x00,
  0x49, 0x64, 0x65, 0x6e, 0x74, 0x69, 0x74, 0x79, 0x00, 0x00, 0x00, 0x00,
  0x02, 0x00, 0x00, 0x00, 0xff, 0xff, 0xff, 0xff, 0x04, 0x00, 0x00, 0x00,
  0x24, 0xd0, 0xff, 0xff, 0x00, 0x00, 0x0e, 0x00, 0x18, 0x00, 0x08, 0x00,
  0x0c, 0x00, 0x10, 0x00, 0x07, 0x00, 0x14, 0x00, 0x0e, 0x00, 0x00, 0x00,
  0x00, 0x00, 0x00, 0x08, 0x03, 0x00, 0x00, 0x00, 0x18, 0x00, 0x00, 0x00,
  0x0c, 0x00, 0x00, 0x00, 0x04, 0x00, 0x00, 0x00, 0x40, 0xcf, 0xff, 0xff,
  0x01, 0x00, 0x00, 0x00, 0x10, 0x00, 0x00, 0x00, 0x03, 0x00, 0x00, 0x00,
  0x0f, 0x00, 0x00, 0x00, 0x07, 0x00, 0x00, 0x00, 0x04, 0x00, 0x00, 0x00,
  0xc8, 0xcf, 0xff, 0xff, 0x14, 0x00, 0x00, 0x00, 0x11, 0x00, 0x00, 0x00,
  0x18, 0x00, 0x00, 0x00, 0x5c, 0x00, 0x00, 0x00, 0x4c, 0x00, 0x00, 0x00,
  0x02, 0x00, 0x00, 0x00, 0x01, 0x00, 0x00, 0x00, 0x04, 0x00, 0x00, 0x00,
  0x34, 0x00, 0x00, 0x00, 0x73, 0x65, 0x71, 0x75, 0x65, 0x6e, 0x74, 0x69,
  0x61, 0x6c, 0x2f, 0x64, 0x65, 0x6e, 0x73, 0x65, 0x5f, 0x31, 0x2f, 0x4d,
  0x61, 0x74, 0x4d, 0x75, 0x6c, 0x3b, 0x73, 0x65, 0x71, 0x75, 0x65, 0x6e,
  0x74, 0x69, 0x61, 0x6c, 0x2f, 0x64, 0x65, 0x6e, 0x73, 0x65, 0x5f, 0x31,
  0x2f, 0x42, 0x69, 0x61, 0x73, 0x41, 0x64, 0x64, 0x00, 0x00, 0x00, 0x00,
  0x02, 0x00, 0x00, 0x00, 0xff, 0xff, 0xff, 0xff, 0x04, 0x00, 0x00, 0x00,
  0xc8, 0xcf, 0xff, 0xff, 0xda, 0xfc, 0xff, 0xff, 0x00, 0x00, 0x00, 0x08,
  0x03, 0x00, 0x00, 0x00, 0x24, 0x00, 0x00, 0x00, 0x18, 0x00, 0x00, 0x00,
  0x0c, 0x00, 0x00, 0x00, 0x00, 0x00, 0x06, 0x00, 0x08, 0x00, 0x07, 0x00,
  0x06, 0x00, 0x00, 0x00, 0x00, 0x00, 0x00, 0x01, 0x01, 0x00, 0x00, 0x00,
  0x0f, 0x00, 0x00, 0x00, 0x03, 0x00, 0x00, 0x00, 0x0e, 0x00, 0x00, 0x00,
  0x06, 0x00, 0x00, 0x00, 0x03, 0x00, 0x00, 0x00, 0xe8, 0xfb, 0xff, 0xff,
  0x09, 0x00, 0x00, 0x00, 0x00, 0x00, 0x00, 0x09, 0x01, 0x00, 0x00, 0x00,
  0x88, 0xd0, 0xff, 0xff, 0x14, 0x00, 0x00, 0x00, 0x10, 0x00, 0x00, 0x00,
  0x18, 0x00, 0x00, 0x00, 0x6c, 0x00, 0x00, 0x00, 0x5c, 0x00, 0x00, 0x00,
  0x02, 0x00, 0x00, 0x00, 0x01, 0x00, 0x00, 0x00, 0x10, 0x00, 0x00, 0x00,
  0x46, 0x00, 0x00, 0x00, 0x73, 0x65, 0x71, 0x75, 0x65, 0x6e, 0x74, 0x69,
  0x61, 0x6c, 0x2f, 0x64, 0x65, 0x6e, 0x73, 0x65, 0x2f, 0x4d, 0x61, 0x74,
  0x4d, 0x75, 0x6c, 0x3b, 0x73, 0x65, 0x71, 0x75, 0x65, 0x6e, 0x74, 0x69,
  0x61, 0x6c, 0x2f, 0x64, 0x65, 0x6e, 0x73, 0x65, 0x2f, 0x52, 0x65, 0x6c,
  0x75, 0x3b, 0x73, 0x65, 0x71, 0x75, 0x65, 0x6e, 0x74, 0x69, 0x61, 0x6c,
  0x2f, 0x64, 0x65, 0x6e, 0x73, 0x65, 0x2f, 0x42, 0x69, 0x61, 0x73, 0x41,
  0x64, 0x64, 0x00, 0x00, 0x02, 0x00, 0x00, 0x00, 0xff, 0xff, 0xff, 0xff,
  0x10, 0x00, 0x00, 0x00, 0xa8, 0xd1, 0xff, 0xff, 0x00, 0x00, 0x0a, 0x00,
  0x10, 0x00, 0x04, 0x00, 0x08, 0x00, 0x0c, 0x00, 0x0a, 0x00, 0x00, 0x00,
  0x02, 0x00, 0x00, 0x00, 0x10, 0x00, 0x00, 0x00, 0x04, 0x00, 0x00, 0x00,
  0x01, 0x00, 0x00, 0x00, 0x0e, 0x00, 0x00, 0x00, 0x02, 0x00, 0x00, 0x00,
  0x0d, 0x00, 0x00, 0x00, 0x05, 0x00, 0x00, 0x00, 0xa8, 0xfc, 0xff, 0xff,
  0x16, 0x00, 0x00, 0x00, 0x00, 0x00, 0x00, 0x16, 0x01, 0x00, 0x00, 0x00,
  0x48, 0xd1, 0xff, 0xff, 0x14, 0x00, 0x00, 0x00, 0x0f, 0x00, 0x00, 0x00,
  0x18, 0x00, 0x00, 0x00, 0x40, 0x00, 0x00, 0x00, 0x30, 0x00, 0x00, 0x00,
  0x02, 0x00, 0x00, 0x00, 0x01, 0x00, 0x00, 0x00, 0x70, 0x00, 0x00, 0x00,
  0x1a, 0x00, 0x00, 0x00, 0x73, 0x65, 0x71, 0x75, 0x65, 0x6e, 0x74, 0x69,
  0x61, 0x6c, 0x2f, 0x66, 0x6c, 0x61, 0x74, 0x74, 0x65, 0x6e, 0x2f, 0x52,
  0x65, 0x73, 0x68, 0x61, 0x70, 0x65, 0x00, 0x00, 0x02, 0x00, 0x00, 0x00,
  0xff, 0xff, 0xff, 0xff, 0x70, 0x00, 0x00, 0x00, 0x2c, 0xd1, 0xff, 0xff,
  0x3e, 0xfe, 0xff, 0xff, 0x00, 0x00, 0x00, 0x05, 0x01, 0x00, 0x00, 0x00,
  0x38, 0x00, 0x00, 0x00, 0x2c, 0x00, 0x00, 0x00, 0x14, 0x00, 0x00, 0x00,
  0x00, 0x00, 0x0e, 0x00, 0x14, 0x00, 0x00, 0x00, 0x10, 0x00, 0x0c, 0x00,
  0x08, 0x00, 0x04, 0x00, 0x0e, 0x00, 0x00, 0x00, 0x03, 0x00, 0x00, 0x00,
  0x01, 0x00, 0x00, 0x00, 0x03, 0x00, 0x00, 0x00, 0x01, 0x00, 0x00, 0x00,
  0x01, 0x00, 0x00, 0x00, 0x0d, 0x00, 0x00, 0x00, 0x01, 0x00, 0x00, 0x00,
  0x0c, 0x00, 0x00, 0x00, 0xe8, 0xd1, 0xff, 0xff, 0x14, 0x00, 0x00, 0x00,
  0x0e, 0x00, 0x00, 0x00, 0x20, 0x00, 0x00, 0x00, 0x58, 0x00, 0x00, 0x00,
  0x40, 0x00, 0x00, 0x00, 0x04, 0x00, 0x00, 0x00, 0x01, 0x00, 0x00, 0x00,
  0x07, 0x00, 0x00, 0x00, 0x01, 0x00, 0x00, 0x00, 0x10, 0x00, 0x00, 0x00,
  0x22, 0x00, 0x00, 0x00, 0x73, 0x65, 0x71, 0x75, 0x65, 0x6e, 0x74, 0x69,
  0x61, 0x6c, 0x2f, 0x6d, 0x61, 0x78, 0x5f, 0x70, 0x6f, 0x6f, 0x6c, 0x69,
  0x6e, 0x67, 0x32, 0x64, 0x5f, 0x31, 0x2f, 0x4d, 0x61, 0x78, 0x50, 0x6f,
  0x6f, 0x6c, 0x00, 0x00, 0x04, 0x00, 0x00, 0x00, 0xff, 0xff, 0xff, 0xff,
  0x07, 0x00, 0x00, 0x00, 0x01, 0x00, 0x00, 0x00, 0x10, 0x00, 0x00, 0x00,
  0xe4, 0xd1, 0xff, 0xff, 0x1a, 0xfe, 0xff, 0xff, 0x00, 0x00, 0x00, 0x01,
  0x24, 0x00, 0x00, 0x00, 0x18, 0x00, 0x00, 0x00, 0x04, 0x00, 0x00, 0x00,
  0x0c, 0xfe, 0xff, 0xff, 0x01, 0x00, 0x00, 0x00, 0x01, 0x00, 0x00, 0x00,
  0x00, 0x00, 0x00, 0x01, 0x01, 0x00, 0x00, 0x00, 0x0c, 0x00, 0x00, 0x00,
  0x03, 0x00, 0x00, 0x00, 0x0b, 0x00, 0x00, 0x00, 0x09, 0x00, 0x00, 0x00,
  0x02, 0x00, 0x00, 0x00, 0x90, 0xd2, 0xff, 0xff, 0x14, 0x00, 0x00, 0x00,
  0x0d, 0x00, 0x00, 0x00, 0x20, 0x00, 0x00, 0x00, 0xb8, 0x00, 0x00, 0x00,
  0xa0, 0x00, 0x00, 0x00, 0x04, 0x00, 0x00, 0x00, 0x01, 0x00, 0x00, 0x00,
  0x15, 0x00, 0x00, 0x00, 0x01, 0x00, 0x00, 0x00, 0x10, 0x00, 0x00, 0x00,
  0x83, 0x00, 0x00, 0x00, 0x73, 0x65, 0x71, 0x75, 0x65, 0x6e, 0x74, 0x69,
  0x61, 0x6c, 0x2f, 0x63, 0x6f, 0x6e, 0x76, 0x32, 0x64, 0x5f, 0x31, 0x2f,
  0x52, 0x65, 0x6c, 0x75, 0x3b, 0x73, 0x65, 0x71, 0x75, 0x65, 0x6e, 0x74,
  0x69, 0x61, 0x6c, 0x2f, 0x63, 0x6f, 0x6e, 0x76, 0x32, 0x64, 0x5f, 0x31,
  0x2f, 0x42, 0x69, 0x61, 0x73, 0x41, 0x64, 0x64, 0x3b, 0x73, 0x65, 0x71,
  0x75, 0x65, 0x6e, 0x74, 0x69, 0x61, 0x6c, 0x2f, 0x63, 0x6f, 0x6e, 0x76,
  0x32, 0x64, 0x5f, 0x31, 0x2f, 0x43, 0x6f, 0x6e, 0x76, 0x32, 0x44, 0x3b,
  0x73, 0x65, 0x71, 0x75, 0x65, 0x6e, 0x74, 0x69, 0x61, 0x6c, 0x2f, 0x63,
  0x6f, 0x6e, 0x76, 0x32, 0x64, 0x5f, 0x31, 0x2f, 0x42, 0x69, 0x61, 0x73,
  0x41, 0x64, 0x64, 0x2f, 0x52, 0x65, 0x61, 0x64, 0x56, 0x61, 0x72, 0x69,
  0x61, 0x62, 0x6c, 0x65, 0x4f, 0x70, 0x2f, 0x72, 0x65, 0x73, 0x6f, 0x75,
  0x72, 0x63, 0x65, 0x00, 0x04, 0x00, 0x00, 0x00, 0xff, 0xff, 0xff, 0xff,
  0x15, 0x00, 0x00, 0x00, 0x01, 0x00, 0x00, 0x00, 0x10, 0x00, 0x00, 0x00,
  0xfc, 0xd3, 0xff, 0xff, 0x00, 0x00, 0x0e, 0x00, 0x1a, 0x00, 0x08, 0x00,
  0x0c, 0x00, 0x10, 0x00, 0x07, 0x00, 0x14, 0x00, 0x0e, 0x00, 0x00, 0x00,
  0x00, 0x00, 0x00, 0x05, 0x01, 0x00, 0x00, 0x00, 0x3c, 0x00, 0x00, 0x00,
  0x30, 0x00, 0x00, 0x00, 0x14, 0x00, 0x00, 0x00, 0x00, 0x00, 0x0e, 0x00,
  0x18, 0x00, 0x17, 0x00, 0x10, 0x00, 0x0c, 0x00, 0x08, 0x00, 0x04, 0x00,
  0x0e, 0x00, 0x00, 0x00, 0x03, 0x00, 0x00, 0x00, 0x03, 0x00, 0x00, 0x00,
  0x03, 0x00, 0x00, 0x00, 0x03, 0x00, 0x00, 0x00, 0x00, 0x00, 0x00, 0x01,
  0x01, 0x00, 0x00, 0x00, 0x0b, 0x00, 0x00, 0x00, 0x01, 0x00, 0x00, 0x00,
  0x0a, 0x00, 0x00, 0x00, 0x2c, 0xff, 0xff, 0xff, 0x11, 0x00, 0x00, 0x00,
  0x00, 0x00, 0x00, 0x11, 0x01, 0x00, 0x00, 0x00, 0xcc, 0xd3, 0xff, 0xff,
  0x14, 0x00, 0x00, 0x00, 0x0c, 0x00, 0x00, 0x00, 0x20, 0x00, 0x00, 0x00,
  0x58, 0x00, 0x00, 0x00, 0x40, 0x00, 0x00, 0x00, 0x04, 0x00, 0x00, 0x00,
  0x01, 0x00, 0x00, 0x00, 0x15, 0x00, 0x00, 0x00, 0x01, 0x00, 0x00, 0x00,
  0x08, 0x00, 0x00, 0x00, 0x20, 0x00, 0x00, 0x00, 0x73, 0x65, 0x71, 0x75,
  0x65, 0x6e, 0x74, 0x69, 0x61, 0x6c, 0x2f, 0x6d, 0x61, 0x78, 0x5f, 0x70,
  0x6f, 0x6f, 0x6c, 0x69, 0x6e, 0x67, 0x32, 0x64, 0x2f, 0x4d, 0x61, 0x78,
  0x50, 0x6f, 0x6f, 0x6c, 0x00, 0x00, 0x00, 0x00, 0x04, 0x00, 0x00, 0x00,
  0xff, 0xff, 0xff, 0xff, 0x15, 0x00, 0x00, 0x00, 0x01, 0x00, 0x00, 0x00,
  0x08, 0x00, 0x00, 0x00, 0xd8, 0xd4, 0xff, 0xff, 0x00, 0x00, 0x0e, 0x00,
  0x14, 0x00, 0x00, 0x00, 0x08, 0x00, 0x0c, 0x00, 0x07, 0x00, 0x10, 0x00,
  0x0e, 0x00, 0x00, 0x00, 0x00, 0x00, 0x00, 0x01, 0x30, 0x00, 0x00, 0x00,
  0x24, 0x00, 0x00, 0x00, 0x10, 0x00, 0x00, 0x00, 0x0c, 0x00, 0x10, 0x00,
  0x00, 0x00, 0x04, 0x00, 0x08, 0x00, 0x0f, 0x00, 0x0c, 0x00, 0x00, 0x00,
  0x01, 0x00, 0x00, 0x00, 0x01, 0x00, 0x00, 0x00, 0x00, 0x00, 0x00, 0x01,
  0x01, 0x00, 0x00, 0x00, 0x0a, 0x00, 0x00, 0x00, 0x03, 0x00, 0x00, 0x00,
  0x00, 0x00, 0x00, 0x00, 0x08, 0x00, 0x00, 0x00, 0x01, 0x00, 0x00, 0x00,
  0x0c, 0x00, 0x10, 0x00, 0x0b, 0x00, 0x00, 0x00, 0x0c, 0x00, 0x04, 0x00,
  0x0c, 0x00, 0x00, 0x00, 0x03, 0x00, 0x00, 0x00, 0x00, 0x00, 0x00, 0x03,
  0x01, 0x00, 0x00, 0x00, 0xac, 0xd4, 0xff, 0xff, 0x14, 0x00, 0x00, 0x00,
  0x0b, 0x00, 0x00, 0x00, 0x20, 0x00, 0x00, 0x00, 0xb0, 0x00, 0x00, 0x00,
  0x98, 0x00, 0x00, 0x00, 0x04, 0x00, 0x00, 0x00, 0x01, 0x00, 0x00, 0x00,
  0x40, 0x00, 0x00, 0x00, 0x03, 0x00, 0x00, 0x00, 0x08, 0x00, 0x00, 0x00,
  0x7b, 0x00, 0x00, 0x00, 0x73, 0x65, 0x71, 0x75, 0x65, 0x6e, 0x74, 0x69,
  0x61, 0x6c, 0x2f, 0x63, 0x6f, 0x6e, 0x76, 0x32, 0x64, 0x2f, 0x52, 0x65,
  0x6c, 0x75, 0x3b, 0x73, 0x65, 0x71, 0x75, 0x65, 0x6e, 0x74, 0x69, 0x61,
  0x6c, 0x2f, 0x63, 0x6f, 0x6e, 0x76, 0x32, 0x64, 0x2f, 0x42, 0x69, 0x61,
  0x73, 0x41, 0x64, 0x64, 0x3b, 0x73, 0x65, 0x71, 0x75, 0x65, 0x6e, 0x74,
  0x69, 0x61, 0x6c, 0x2f, 0x63, 0x6f, 0x6e, 0x76, 0x32, 0x64, 0x2f, 0x43,
  0x6f, 0x6e, 0x76, 0x32, 0x44, 0x3b, 0x73, 0x65, 0x71, 0x75, 0x65, 0x6e,
  0x74, 0x69, 0x61, 0x6c, 0x2f, 0x63, 0x6f, 0x6e, 0x76, 0x32, 0x64, 0x2f,
  0x42, 0x69, 0x61, 0x73, 0x41, 0x64, 0x64, 0x2f, 0x52, 0x65, 0x61, 0x64,
  0x56, 0x61, 0x72, 0x69, 0x61, 0x62, 0x6c, 0x65, 0x4f, 0x70, 0x2f, 0x72,
  0x65, 0x73, 0x6f, 0x75, 0x72, 0x63, 0x65, 0x00, 0x04, 0x00, 0x00, 0x00,
  0xff, 0xff, 0xff, 0xff, 0x40, 0x00, 0x00, 0x00, 0x03, 0x00, 0x00, 0x00,
  0x08, 0x00, 0x00, 0x00, 0x00, 0xd5, 0xff, 0xff, 0x0a, 0xd6, 0xff, 0xff,
  0x04, 0x00, 0x00, 0x00, 0x00, 0x08, 0x00, 0x00, 0xf6, 0x77, 0xaa, 0xbe,
  0x56, 0x42, 0x21, 0xbc, 0x90, 0x77, 0xf4, 0xbe, 0xdb, 0xea, 0x3a, 0xbe,
  0x42, 0xb2, 0x02, 0x3e, 0x7f, 0x13, 0x8c, 0xbe, 0x54, 0x22, 0xe3, 0xbd,
  0x04, 0x9d, 0xe2, 0x3e, 0x28, 0x63, 0xfb, 0xbd, 0xd2, 0xf2, 0x10, 0xbf,
  0x65, 0x1d, 0x84, 0xbc, 0x8b, 0x29, 0x8f, 0xbe, 0xef, 0xff, 0x20, 0x3e,
  0x5d, 0xda, 0xa1, 0xbd, 0x9c, 0x97, 0x19, 0xbf, 0x4f, 0xab, 0x89, 0x3e,
  0x85, 0xc7, 0x27, 0x3e, 0x22, 0x7c, 0x39, 0x3d, 0xb8, 0x07, 0x08, 0x3e,
  0x45, 0x69, 0x0a, 0xbe, 0xa8, 0xe0, 0x5f, 0xbd, 0x1c, 0xab, 0xfb, 0x3c,
  0x8a, 0x2b, 0xa2, 0xbe, 0x83, 0xa3, 0x20, 0xbf, 0x79, 0x56, 0x88, 0xbd,
  0x0c, 0x6b, 0x6c, 0x3e, 0x22, 0xc5, 0x68, 0x3e, 0xb8, 0x76, 0x8c, 0x3d,
  0xd0, 0x50, 0x1a, 0xbd, 0x51, 0x1f, 0x0b, 0xbe, 0x48, 0x29, 0x82, 0x3e,
  0x08, 0x32, 0xa2, 0xbe, 0x41, 0x73, 0x66, 0xbe, 0x05, 0x7e, 0x0e, 0xbe,
  0x2e, 0xd3, 0x47, 0xbf, 0xb7, 0xff, 0x5a, 0xbe, 0x55, 0x28, 0xc4, 0x3d,
  0xb0, 0x05, 0x4d, 0xbe, 0x9d, 0xe0, 0x5a, 0xbe, 0x1d, 0x72, 0xc2, 0x3e,
  0x89, 0xfd, 0x68, 0x3e, 0xa2, 0x6d, 0xbd, 0xbe, 0x29, 0x4d, 0xf3, 0x3d,
  0xab, 0x39, 0xa6, 0xbe, 0x20, 0x84, 0x57, 0xbe, 0xee, 0x76, 0x02, 0x3e,
  0x5b, 0xc5, 0xb4, 0xbf, 0x1a, 0x9c, 0xbc, 0x3e, 0x80, 0xb9, 0x6d, 0x3b,
  0x39, 0x53, 0xcb, 0x3d, 0x97, 0x9a, 0x2a, 0x3e, 0xb3, 0x5b, 0x8b, 0xbd,
  0x8c, 0x58, 0x20, 0xbe, 0x52, 0xc2, 0x88, 0x3d, 0x7c, 0x58, 0x42, 0x3d,
  0x86, 0x50, 0xa5, 0xbe, 0x7e, 0xd0, 0xd2, 0xbe, 0xb5, 0xc8, 0xbe, 0x3d,
  0xde, 0x58, 0x73, 0x3d, 0x13, 0xbc, 0xd5, 0x3c, 0x17, 0xa8, 0x1d, 0xbd,
  0xde, 0xaa, 0x95, 0xbe, 0xd8, 0x46, 0x15, 0x3e, 0x6d, 0x4c, 0x52, 0xbe,
  0x93, 0xe6, 0x18, 0x3d, 0x28, 0x63, 0xec, 0xbc, 0x50, 0xe7, 0x00, 0x3e,
  0xce, 0xe5, 0x34, 0xbe, 0xba, 0x5f, 0x4a, 0xbe, 0x20, 0xa4, 0xac, 0x3e,
  0x2a, 0x4d, 0x0e, 0xbc, 0x1c, 0x1e, 0xad, 0x3d, 0x9d, 0x77, 0x00, 0x3e,
  0xd8, 0x14, 0x49, 0xbe, 0x30, 0x07, 0x69, 0x3c, 0x04, 0x93, 0x8a, 0xbe,
  0x31, 0x7a, 0x43, 0xbe, 0x41, 0xf6, 0x11, 0xbe, 0xf7, 0xfb, 0x95, 0xbe,
  0xc9, 0x75, 0xc1, 0x3e, 0x33, 0xd5, 0xad, 0x3d, 0x59, 0x50, 0x8c, 0x3d,
  0xb3, 0x79, 0x3d, 0x3e, 0x9d, 0x0c, 0x42, 0xbe, 0x7e, 0x83, 0x60, 0xbe,
  0x5a, 0x7a, 0x68, 0xbd, 0xe1, 0x53, 0x44, 0xbd, 0x15, 0x1a, 0x43, 0x3e,
  0x13, 0xd5, 0xeb, 0x3d, 0xd5, 0xcb, 0xec, 0x3d, 0xbb, 0x4e, 0x3b, 0x3e,
  0x74, 0x15, 0xd2, 0xbd, 0x3e, 0xc0, 0x34, 0xbe, 0xc7, 0xe9, 0x04, 0x3e,
  0x3d, 0x79, 0x06, 0x3d, 0xce, 0xac, 0xd2, 0x3d, 0xc3, 0xae, 0x37, 0xbe,
  0x99, 0x60, 0x2a, 0x3e, 0xd3, 0xb0, 0x19, 0x3d, 0x2e, 0x7f, 0x99, 0xbc,
  0x51, 0x36, 0x20, 0xbd, 0xc0, 0x32, 0x83, 0xbe, 0xd5, 0x46, 0x2e, 0x3e,
  0x45, 0x26, 0xc9, 0x3e, 0xf4, 0x43, 0xbd, 0xbe, 0x4a, 0xad, 0x3b, 0xbd,
  0xbd, 0xdb, 0x5f, 0xbe, 0xf6, 0x01, 0x86, 0xbd, 0xe8, 0xa2, 0xfb, 0xbc,
  0x6f, 0xec, 0xb4, 0xbe, 0x28, 0xb4, 0x31, 0xbd, 0xb7, 0x72, 0x38, 0x3d,
  0x39, 0xb7, 0xe4, 0xbd, 0x9e, 0x45, 0x1b, 0xbd, 0xc4, 0x6e, 0x09, 0xbe,
  0xd2, 0xf9, 0x78, 0xbd, 0x8a, 0x22, 0xd5, 0xbc, 0x93, 0xa0, 0x07, 0xbe,
  0x69, 0x58, 0xd4, 0xbd, 0x65, 0x73, 0xfd, 0x3d, 0xd8, 0xcc, 0x84, 0x3d,
  0x1e, 0x85, 0xae, 0xbd, 0xfe, 0x72, 0xdd, 0xbd, 0x85, 0xe3, 0x4d, 0xbd,
  0x94, 0x4d, 0x32, 0x3e, 0xb4, 0x64, 0x72, 0x3c, 0xa0, 0x1e, 0x9a, 0xbd,
  0xd4, 0xe9, 0x98, 0x3d, 0x26, 0xc6, 0x4d, 0xbe, 0x3f, 0xfc, 0x1f, 0xbe,
  0x7b, 0x8b, 0xc0, 0xbe, 0x2f, 0xb5, 0x8f, 0xbd, 0x8c, 0xa7, 0x32, 0xbd,
  0xaf, 0xe3, 0x7f, 0xbe, 0x1c, 0xbb, 0xce, 0xbd, 0xbb, 0xbe, 0xd3, 0xbb,
  0x51, 0x5b, 0x1a, 0xbd, 0x57, 0x30, 0x37, 0xbe, 0xe7, 0x14, 0x47, 0xbe,
  0xb4, 0x97, 0x74, 0xbd, 0xf9, 0x3c, 0x48, 0xbd, 0x4c, 0xe9, 0xd0, 0xbd,
  0xc7, 0x74, 0x1c, 0xbe, 0x48, 0x85, 0x23, 0xbe, 0x26, 0xfa, 0x1c, 0x3e,
  0x91, 0x3a, 0xd6, 0xbd, 0xba, 0x2d, 0x80, 0x3e, 0xce, 0x32, 0x20, 0xbd,
  0xba, 0xe8, 0x25, 0x3d, 0xed, 0x8e, 0x06, 0xbb, 0xfc, 0x9c, 0x97, 0xbd,
  0x38, 0x62, 0x26, 0x3e, 0xbc, 0x9b, 0x10, 0x3d, 0x09, 0xce, 0xc2, 0x3e,
  0xb3, 0x1b, 0x90, 0x3e, 0x96, 0xdd, 0xca, 0x3d, 0x05, 0xa4, 0xd3, 0xbb,
  0xc3, 0xad, 0xe7, 0xbb, 0x8c, 0x08, 0x74, 0x3b, 0x02, 0x79, 0x83, 0x3d,
  0x9a, 0x44, 0x1c, 0x3d, 0x78, 0xc2, 0x32, 0xbc, 0xad, 0x85, 0xc9, 0xbd,
  0x7a, 0xb2, 0x92, 0x3d, 0x79, 0x5c, 0xa1, 0xbb, 0xfa, 0xb6, 0xd3, 0xbc,
  0x28, 0x4d, 0x1f, 0xbd, 0x92, 0x25, 0x96, 0xbd, 0x39, 0x4c, 0x77, 0xbc,
  0x3d, 0x73, 0xb1, 0x3b, 0x8d, 0x8f, 0x33, 0xbc, 0x61, 0x42, 0x70, 0x3c,
  0xbe, 0x3f, 0xf3, 0xbc, 0x4a, 0x87, 0x07, 0x3e, 0xac, 0x95, 0x99, 0xbc,
  0x90, 0xb4, 0xfe, 0x3d, 0x67, 0x5c, 0x21, 0xbd, 0x25, 0x87, 0x52, 0x3e,
  0xb2, 0xd6, 0x9a, 0x3e, 0xfa, 0xe3, 0xc0, 0x3c, 0x45, 0xb4, 0x57, 0xbd,
  0xb6, 0x0c, 0xbd, 0xbd, 0xb3, 0x3e, 0x90, 0xbb, 0x2c, 0x49, 0x64, 0x3e,
  0xc0, 0x7a, 0xbc, 0xbd, 0xae, 0x1d, 0x4b, 0xbd, 0x0e, 0xae, 0x5b, 0xbd,
  0xec, 0x62, 0x26, 0xbd, 0xb0, 0x8a, 0x7e, 0xbd, 0x7b, 0x23, 0x58, 0xbe,
  0x6c, 0x49, 0x99, 0xbc, 0xac, 0xff, 0x06, 0x3e, 0x5c, 0x16, 0xed, 0x3e,
  0x10, 0x74, 0x11, 0xbf, 0x37, 0x33, 0x8a, 0x3e, 0x99, 0x88, 0x81, 0xbe,
  0x9b, 0x90, 0x83, 0xbe, 0x65, 0x3d, 0xf3, 0x3e, 0xa6, 0x86, 0x31, 0xbf,
  0x45, 0x85, 0x86, 0xbd, 0x44, 0x8f, 0xa2, 0xbd, 0xe3, 0x28, 0xea, 0xbe,
  0x48, 0x30, 0x10, 0xbd, 0x48, 0xa0, 0x3a, 0xbe, 0x1a, 0xd9, 0xe1, 0xbe,
  0xf5, 0xb3, 0x4a, 0xbe, 0x86, 0x41, 0xdd, 0xbe, 0x38, 0xc6, 0x1f, 0xbf,
  0xf7, 0xb2, 0x93, 0xbe, 0x3e, 0xd1, 0x8b, 0xbe, 0xce, 0x2f, 0x58, 0x3e,
  0xc8, 0x57, 0xdb, 0xbd, 0x27, 0x50, 0x02, 0xbe, 0x6e, 0x76, 0x87, 0xbe,
  0xcf, 0xd1, 0x17, 0x3e, 0x10, 0xf2, 0x1e, 0xbd, 0x33, 0x8e, 0xa1, 0xbe,
  0x5f, 0xe1, 0x11, 0x3e, 0x33, 0x8b, 0xa3, 0x3c, 0xae, 0xd8, 0xa8, 0x3e,
  0xf9, 0x49, 0x62, 0x3e, 0x8a, 0xb5, 0x76, 0xbe, 0x46, 0x0f, 0x32, 0x3e,
  0x39, 0xb4, 0xc4, 0x3d, 0x63, 0x76, 0x93, 0x3e, 0x65, 0xe7, 0x17, 0xbd,
  0xe0, 0x30, 0x83, 0x3e, 0x3f, 0xd4, 0x83, 0xbe, 0x97, 0x6d, 0x51, 0xbd,
  0x13, 0x91, 0x78, 0x3e, 0xdf, 0xeb, 0xa2, 0xbe, 0xdb, 0x10, 0x2b, 0x3d,
  0x4d, 0x5f, 0x04, 0xbe, 0x4f, 0x99, 0xb8, 0xbe, 0x03, 0xec, 0x4c, 0xbc,
  0x5d, 0x27, 0x8d, 0xbe, 0xe2, 0x8f, 0xf7, 0xbd, 0x37, 0xc8, 0xb4, 0x3d,
  0x99, 0x25, 0x93, 0xbe, 0xd1, 0x85, 0xc9, 0xbe, 0x26, 0x73, 0xa5, 0xbd,
  0xbd, 0x5c, 0xcb, 0xbe, 0xc9, 0xfe, 0x72, 0xbc, 0x54, 0xb9, 0x87, 0xbe,
  0x20, 0x17, 0x9f, 0xbe, 0x1b, 0x13, 0x86, 0x3d, 0xf1, 0x20, 0xf6, 0xbd,
  0x28, 0xef, 0xb9, 0xbe, 0xc9, 0xbc, 0x92, 0x3d, 0x5a, 0x25, 0x13, 0xbe,
  0x6d, 0x91, 0x3f, 0x3e, 0x8b, 0xe2, 0xa4, 0xbc, 0xcb, 0x63, 0x8b, 0xbe,
  0x93, 0x20, 0xd1, 0xbd, 0x12, 0x8c, 0x44, 0x3e, 0x3b, 0xc3, 0xbd, 0xbe,
  0x92, 0x0b, 0x80, 0xbd, 0xa6, 0x6b, 0x5c, 0xbd, 0xf0, 0x5c, 0xd4, 0x3e,
  0x53, 0x5e, 0xa9, 0xbe, 0x5b, 0x9b, 0x85, 0xbe, 0x19, 0x3c, 0x4c, 0x3e,
  0x29, 0x66, 0x0a, 0xbf, 0x7c, 0x4b, 0x1a, 0xbe, 0x82, 0xa9, 0x03, 0x3d,
  0x32, 0x41, 0x05, 0x3e, 0xc1, 0x94, 0xf8, 0x3c, 0x72, 0x8d, 0x1f, 0xbe,
  0xc6, 0x6d, 0xc5, 0x3d, 0x4f, 0x6c, 0x42, 0x3e, 0xda, 0x37, 0xce, 0x3c,
  0xdb, 0x6d, 0xab, 0xbd, 0x80, 0x03, 0xa0, 0x3d, 0x50, 0x0b, 0x46, 0x3d,
  0x64, 0x58, 0xd9, 0xbe, 0xff, 0xdd, 0xc6, 0xbd, 0x45, 0xb2, 0x9c, 0x3d,
  0x0c, 0x3d, 0x86, 0xbd, 0xc2, 0xa9, 0x8c, 0x3c, 0x37, 0x57, 0x15, 0xbd,
  0x5e, 0x2e, 0xee, 0x3d, 0xcb, 0xfe, 0x9c, 0x3e, 0x0b, 0x04, 0xa8, 0xbe,
  0xf5, 0x4c, 0x29, 0xbe, 0xb8, 0x14, 0x85, 0x3e, 0xf9, 0x57, 0xff, 0x3d,
  0x63, 0xc5, 0x96, 0xbd, 0xcc, 0x59, 0x7a, 0x3e, 0x1a, 0x52, 0xe7, 0xbd,
  0xed, 0x21, 0x2e, 0xbd, 0xd1, 0x40, 0x1b, 0xbf, 0x8a, 0xda, 0x7b, 0xbe,
  0x98, 0xb2, 0x40, 0x3d, 0x35, 0x3d, 0x52, 0xbe, 0xcc, 0xdf, 0x75, 0x3e,
  0xd3, 0xe3, 0x8e, 0xbe, 0x65, 0x2f, 0x80, 0x3d, 0xa2, 0x29, 0x8e, 0xbe,
  0x90, 0x3b, 0x46, 0xbf, 0xf8, 0x8a, 0xc3, 0xbe, 0xb9, 0xc5, 0x7d, 0x3d,
  0x58, 0x66, 0x58, 0xbc, 0x07, 0x6e, 0x7b, 0xbe, 0xd1, 0x50, 0x30, 0x3e,
  0xcb, 0x53, 0x86, 0x3d, 0x83, 0x12, 0x7f, 0x3e, 0x25, 0xf4, 0x46, 0xbe,
  0x84, 0x98, 0x56, 0xbe, 0x79, 0x1a, 0x3f, 0xbe, 0x69, 0xdb, 0x75, 0x3e,
  0x8a, 0x45, 0x75, 0xbe, 0x85, 0xf5, 0x85, 0x3e, 0x52, 0xc4, 0x92, 0x3b,
  0xbb, 0xaf, 0x59, 0x3e, 0xc2, 0x89, 0xd1, 0x3e, 0x3b, 0xf4, 0xbd, 0xbc,
  0x56, 0x5f, 0xd5, 0xbd, 0x43, 0xac, 0x6b, 0xbb, 0xd8, 0x87, 0xcd, 0xbc,
  0xbb, 0x09, 0x16, 0xbc, 0x32, 0x17, 0xae, 0xbe, 0xf0, 0x7b, 0xa3, 0xbd,
  0x8d, 0x18, 0x8d, 0x3e, 0x77, 0xa8, 0xaa, 0x3d, 0x03, 0xb4, 0xa1, 0xbd,
  0xf2, 0x0c, 0x9a, 0xbe, 0x8e, 0x01, 0x5a, 0xbb, 0xc4, 0xed, 0x01, 0xbe,
  0xad, 0x3b, 0x90, 0xbe, 0x37, 0x3c, 0x84, 0xbe, 0xd4, 0x6b, 0x74, 0x3d,
  0x5f, 0xe3, 0xac, 0xbd, 0x7f, 0x82, 0x2e, 0xbe, 0x2f, 0x4f, 0x99, 0xbe,
  0x84, 0x84, 0x42, 0xbe, 0x06, 0x60, 0x16, 0xbe, 0x89, 0xf5, 0x2f, 0x3e,
  0xf3, 0xd4, 0xe6, 0xbe, 0xd0, 0x38, 0x09, 0x3e, 0x05, 0x30, 0x00, 0xbe,
  0x17, 0xf4, 0x43, 0x3d, 0xfd, 0xf8, 0x1c, 0xbe, 0x9c, 0x4c, 0xe9, 0xbe,
  0x69, 0x47, 0x0c, 0x3f, 0x0c, 0x04, 0x1a, 0x3e, 0xc6, 0xb7, 0x4a, 0xbe,
  0x26, 0x27, 0x4e, 0xbe, 0xc3, 0x3d, 0x4b, 0xbe, 0x69, 0x1f, 0xc0, 0xbc,
  0x02, 0x9a, 0xc1, 0x3e, 0x29, 0xd6, 0x96, 0xbe, 0xaf, 0x8b, 0x5f, 0x3e,
  0xa2, 0xbe, 0x78, 0xbe, 0x8d, 0x02, 0x96, 0xbd, 0xd0, 0xa2, 0x8e, 0x3e,
  0x1c, 0x92, 0x09, 0xba, 0x34, 0x2a, 0xa2, 0x3c, 0x27, 0x63, 0x82, 0xbe,
  0x48, 0xfc, 0x91, 0xbb, 0xc6, 0xbe, 0x08, 0x3f, 0x63, 0x12, 0x1c, 0x3e,
  0x68, 0xaa, 0x93, 0xbe, 0x7a, 0xba, 0x0c, 0xbe, 0x43, 0x78, 0xa4, 0xbd,
  0x4c, 0x7b, 0x0a, 0xba, 0xe8, 0x06, 0xc8, 0x3c, 0x6a, 0x64, 0x41, 0xbe,
  0x75, 0x9c, 0x78, 0x3e, 0xbc, 0x79, 0x43, 0xbe, 0x49, 0x60, 0xf7, 0xbe,
  0x1a, 0xb5, 0xa4, 0x3d, 0x06, 0xe5, 0x1c, 0xbe, 0x65, 0x42, 0x81, 0xbd,
  0xc3, 0x16, 0x33, 0xbe, 0x55, 0x3e, 0xd0, 0xbe, 0x3f, 0x8b, 0xdc, 0x3d,
  0xc0, 0x68, 0x80, 0x3b, 0x0a, 0x6f, 0x26, 0xbf, 0x43, 0xe7, 0xf8, 0xbd,
  0xc1, 0xd0, 0x4e, 0xbe, 0x52, 0x21, 0x02, 0xbe, 0x11, 0x83, 0xf0, 0x3d,
  0x94, 0x45, 0x70, 0xbf, 0x85, 0x53, 0x5d, 0xbe, 0x37, 0x98, 0xe2, 0xbe,
  0xb9, 0x4e, 0xaa, 0xbe, 0xa6, 0xde, 0x0c, 0xbf, 0xa8, 0xdf, 0x78, 0xbe,
  0x5c, 0x00, 0xf7, 0x3b, 0x76, 0x73, 0x3d, 0x3c, 0xa0, 0xf7, 0x1f, 0x3e,
  0x49, 0x53, 0xb4, 0xbd, 0x71, 0x90, 0xa5, 0xbe, 0xae, 0xcc, 0x70, 0xbe,
  0x49, 0x78, 0xa0, 0xbe, 0x32, 0x1c, 0xef, 0xbd, 0x02, 0x40, 0x0a, 0xbd,
  0x87, 0xb1, 0x89, 0xbe, 0x2f, 0x94, 0x0c, 0xbd, 0x98, 0x07, 0xbd, 0xbd,
  0x98, 0x36, 0xdf, 0xbe, 0x21, 0xae, 0xd2, 0xbd, 0x4b, 0xeb, 0xf2, 0xbe,
  0x51, 0x5b, 0x2b, 0xbe, 0xe8, 0xb3, 0x57, 0x3d, 0x42, 0x0c, 0x21, 0xbe,
  0x58, 0xf8, 0x88, 0x3d, 0xf6, 0xe7, 0x81, 0xbe, 0x23, 0x57, 0xf8, 0xbe,
  0xf8, 0xd6, 0x3c, 0xbe, 0x2e, 0xad, 0xcf, 0xbb, 0xa9, 0xd7, 0x27, 0xbe,
  0x3d, 0xa6, 0x86, 0xbd, 0xce, 0x23, 0x48, 0xbe, 0xb8, 0x16, 0x93, 0x3e,
  0x80, 0xad, 0xbf, 0xbd, 0x72, 0x43, 0xb0, 0x3e, 0xd9, 0x8d, 0x85, 0xbe,
  0x09, 0xff, 0xe5, 0x3d, 0x1e, 0xa9, 0x21, 0xbe, 0x47, 0x89, 0xfb, 0xbd,
  0x07, 0x94, 0x16, 0x3f, 0x44, 0x0f, 0x51, 0xbf, 0x45, 0x75, 0xef, 0xbd,
  0x0f, 0xc6, 0x05, 0x3e, 0xbc, 0xc7, 0xdf, 0xbd, 0xd6, 0x7a, 0xb9, 0x3c,
  0x03, 0x09, 0x47, 0xbc, 0x80, 0x32, 0xdb, 0xbd, 0x09, 0xe0, 0xde, 0xbd,
  0x60, 0xd4, 0xfb, 0xbd, 0xea, 0x1b, 0xc6, 0xbe, 0x15, 0x0b, 0x8e, 0xbe,
  0xdb, 0x6f, 0x60, 0xbd, 0x6e, 0x72, 0x2e, 0xbe, 0x88, 0xb5, 0x08, 0x3d,
  0x00, 0x21, 0x44, 0xbd, 0x8f, 0xbd, 0x81, 0xbe, 0x8e, 0x1d, 0xba, 0x3d,
  0xad, 0xfe, 0xfb, 0x3d, 0x03, 0x6d, 0x8b, 0xbe, 0x24, 0x3c, 0x09, 0xbd,
  0xc7, 0x8e, 0xef, 0xbc, 0x54, 0x18, 0xd6, 0xbb, 0xcf, 0x9c, 0x26, 0xbc,
  0x79, 0x33, 0xae, 0xbe, 0xa5, 0x8a, 0x84, 0x3e, 0xe3, 0x81, 0xcf, 0x3d,
  0x3e, 0x6c, 0x20, 0xbe, 0x37, 0x69, 0x42, 0xbf, 0xbb, 0xfe, 0x92, 0x3e,
  0x4a, 0x7f, 0xe6, 0xbc, 0xc2, 0x6d, 0x07, 0xbf, 0x44, 0x36, 0x0d, 0xbe,
  0x50, 0x0d, 0x1f, 0xbf, 0x73, 0x3c, 0xe4, 0x3e, 0xa1, 0xce, 0x08, 0x3e,
  0xfb, 0xe4, 0x80, 0xbf, 0x41, 0x94, 0x77, 0xbe, 0x9a, 0x09, 0x54, 0xbd,
  0x14, 0xda, 0xcc, 0xbe, 0xf4, 0x55, 0x31, 0x3e, 0x05, 0x44, 0x9c, 0xbf,
  0xcf, 0x14, 0x3a, 0x3e, 0xd1, 0x87, 0xa5, 0x3b, 0xaa, 0x4e, 0x30, 0xbf,
  0xd8, 0x99, 0xb2, 0x3e, 0xd2, 0x55, 0x8d, 0xbd, 0x4f, 0xe6, 0x48, 0xbd,
  0x0b, 0x89, 0xf1, 0x3c, 0xce, 0xc8, 0x0f, 0xbf, 0x52, 0xd1, 0x22, 0xbd,
  0x03, 0xe7, 0x23, 0x3e, 0x13, 0x7b, 0x08, 0xbe, 0x25, 0x59, 0x5a, 0x3e,
  0x5b, 0xc2, 0xe3, 0xbc, 0x5d, 0x49, 0xa8, 0xbe, 0xc7, 0xb7, 0x20, 0x3e,
  0x07, 0x5d, 0x98, 0xbe, 0x31, 0xd2, 0xbe, 0xbe, 0x68, 0xe6, 0x0b, 0x3e,
  0x6d, 0x73, 0x95, 0xbe, 0x9c, 0xea, 0xb5, 0xbe, 0xe7, 0x29, 0x66, 0xbc,
  0xf4, 0x9f, 0xcc, 0xbe, 0xac, 0x8a, 0xe0, 0xbc, 0x93, 0x39, 0xe2, 0xbd,
  0x89, 0x21, 0xc7, 0x3e, 0x1b, 0xd6, 0x56, 0xbe, 0xfc, 0xfc, 0xd2, 0xbe,
  0x08, 0x32, 0xb2, 0xbe, 0xd8, 0x69, 0xf4, 0x3d, 0x99, 0x17, 0x59, 0xbe,
  0x05, 0x4b, 0x25, 0x3d, 0xe0, 0x26, 0x0a, 0xbe, 0x21, 0x8c, 0x4d, 0x3c,
  0xfc, 0x73, 0x5c, 0xbe, 0x0c, 0x8f, 0x41, 0xbd, 0x37, 0x93, 0x09, 0xbf,
  0xbe, 0xee, 0x88, 0x3e, 0xb5, 0xe6, 0x95, 0xbe, 0x5f, 0xf3, 0x6f, 0xbe,
  0xe5, 0x92, 0x95, 0xbc, 0x70, 0x7b, 0x6f, 0xbd, 0x15, 0x93, 0x5a, 0xba,
  0x64, 0x43, 0x83, 0xbd, 0x2e, 0xfa, 0xc7, 0xbe, 0xa7, 0xd5, 0xa3, 0xbd,
  0xdf, 0xbc, 0xac, 0xbe, 0xc8, 0x14, 0xd5, 0xbd, 0x5f, 0xf3, 0x9f, 0xbc,
  0xac, 0xc9, 0x9d, 0xbd, 0xe2, 0xdd, 0xff, 0xff, 0x10, 0x00, 0x00, 0x00,
  0x0a, 0x00, 0x00, 0x00, 0x1c, 0x00, 0x00, 0x00, 0x38, 0x00, 0x00, 0x00,
  0x04, 0x00, 0x00, 0x00, 0x10, 0x00, 0x00, 0x00, 0x04, 0x00, 0x00, 0x00,
  0x01, 0x00, 0x00, 0x00, 0x08, 0x00, 0x00, 0x00, 0x1a, 0x00, 0x00, 0x00,
  0x73, 0x65, 0x71, 0x75, 0x65, 0x6e, 0x74, 0x69, 0x61, 0x6c, 0x2f, 0x63,
  0x6f, 0x6e, 0x76, 0x32, 0x64, 0x5f, 0x31, 0x2f, 0x43, 0x6f, 0x6e, 0x76,
  0x32, 0x44, 0x00, 0x00, 0x58, 0xdd, 0xff, 0xff, 0x62, 0xde, 0xff, 0xff,
  0x04, 0x00, 0x00, 0x00, 0x80, 0x01, 0x00, 0x00, 0x95, 0xad, 0x56, 0x3e,
  0xf8, 0x61, 0x3c, 0xbb, 0x02, 0x43, 0xa7, 0xbb, 0x26, 0x16, 0x09, 0x3f,
  0x4c, 0x8e, 0xc8, 0x3d, 0xe5, 0x08, 0x83, 0x3d, 0x9a, 0x0d, 0xcc, 0xbe,
  0xc5, 0xb0, 0x25, 0x3c, 0x93, 0x59, 0xeb, 0xbc, 0x2d, 0xce, 0x3a, 0xbd,
  0x70, 0xc8, 0xda, 0xbd, 0xb3, 0x95, 0xe0, 0xbd, 0xe8, 0x80, 0xc0, 0x3e,
  0x7a, 0x13, 0xa6, 0xbe, 0x49, 0x54, 0xfd, 0xbd, 0x5c, 0xed, 0x87, 0xbd,
  0xdb, 0xe5, 0x2d, 0x3e, 0x75, 0x50, 0x0e, 0x3d, 0xab, 0xdd, 0xf3, 0xbe,
  0x65, 0xd5, 0x15, 0xbe, 0x85, 0x67, 0x7f, 0xbd, 0xbe, 0x37, 0xc0, 0x3c,
  0x39, 0x76, 0xc2, 0xbc, 0xf8, 0x52, 0x70, 0xbc, 0x8d, 0x71, 0xe5, 0x3e,
  0x14, 0xc6, 0x52, 0x3e, 0x33, 0x6b, 0x33, 0xbe, 0x3e, 0xa1, 0x67, 0x3c,
  0xe1, 0x50, 0x69, 0x3e, 0x02, 0xe2, 0x29, 0xbe, 0x00, 0xb8, 0x9a, 0xbe,
  0xa5, 0xce, 0x66, 0xbe, 0x5e, 0x36, 0x8d, 0x3d, 0xad, 0x3a, 0x3f, 0xbe,
  0xe8, 0x89, 0x9f, 0xbe, 0x14, 0x57, 0x0d, 0x3e, 0x13, 0x8c, 0x9b, 0x3d,
  0xef, 0x0f, 0xb0, 0xbe, 0x38, 0x1e, 0x1b, 0x3d, 0xee, 0xbf, 0x3a, 0x3d,
  0x0d, 0x33, 0x48, 0xbe, 0x0f, 0x44, 0x36, 0xbd, 0xf2, 0xf5, 0x51, 0xbd,
  0x5d, 0x9d, 0xe3, 0xbd, 0xb2, 0x61, 0xf5, 0x3d, 0x99, 0x2d, 0xb9, 0xbd,
  0xae, 0xa6, 0xa3, 0xbd, 0xe9, 0x85, 0x88, 0x3d, 0x77, 0x8a, 0xc0, 0x3d,
  0xd5, 0x9f, 0x82, 0xbe, 0xe0, 0x87, 0xdf, 0xbc, 0x46, 0xad, 0x29, 0x3d,
  0x23, 0x13, 0xf7, 0xbb, 0x04, 0xdf, 0xd6, 0xbc, 0x0f, 0xe7, 0x2f, 0x3e,
  0xcf, 0x26, 0x43, 0x3d, 0x2b, 0x39, 0x99, 0xbd, 0xb4, 0x73, 0xae, 0x3e,
  0x15, 0xca, 0x24, 0xbe, 0x9d, 0x65, 0xc4, 0x3d, 0x8d, 0xb5, 0xdf, 0x3e,
  0xea, 0x3b, 0xf5, 0x3c, 0xb0, 0xe5, 0x39, 0x3b, 0xb0, 0xa0, 0x92, 0x3e,
  0xf6, 0xbe, 0x08, 0x3e, 0x29, 0xef, 0x14, 0x3d, 0x08, 0xf7, 0x08, 0xbe,
  0xe2, 0xb9, 0xec, 0xb8, 0xa6, 0x78, 0xa7, 0x3d, 0x67, 0xc9, 0x90, 0xbe,
  0x2b, 0xc8, 0x73, 0xbe, 0x28, 0x2d, 0x5f, 0xbe, 0x1b, 0x1b, 0x23, 0x3d,
  0x75, 0xd6, 0x75, 0xbe, 0x0e, 0x1d, 0x53, 0xbe, 0xc7, 0x8b, 0x66, 0xbd,
  0x1f, 0x2d, 0xab, 0x3d, 0xcf, 0x6c, 0x24, 0xbd, 0xae, 0xee, 0x83, 0x3d,
  0x31, 0x45, 0x2f, 0xbe, 0x3f, 0x98, 0xe5, 0xbc, 0xeb, 0x0d, 0x0d, 0xbe,
  0x77, 0x17, 0x07, 0x3d, 0x71, 0x02, 0xbb, 0xbd, 0x2a, 0x39, 0xe6, 0xbe,
  0x5b, 0x44, 0x23, 0xbd, 0x82, 0x53, 0x42, 0x3d, 0x15, 0x17, 0xdc, 0xbe,
  0xd7, 0xbf, 0x82, 0xbd, 0x34, 0xbc, 0xdb, 0xbd, 0x39, 0x92, 0x46, 0x3e,
  0xe0, 0xbb, 0x05, 0xbd, 0x5f, 0x19, 0xc2, 0xbb, 0xc2, 0xf3, 0x25, 0x3f,
  0xb7, 0x26, 0x0f, 0x3e, 0x0a, 0x23, 0x4a, 0x3d, 0xba, 0xdf, 0xff, 0xff,
  0x10, 0x00, 0x00, 0x00, 0x09, 0x00, 0x00, 0x00, 0x1c, 0x00, 0x00, 0x00,
  0x38, 0x00, 0x00, 0x00, 0x04, 0x00, 0x00, 0x00, 0x08, 0x00, 0x00, 0x00,
  0x04, 0x00, 0x00, 0x00, 0x03, 0x00, 0x00, 0x00, 0x01, 0x00, 0x00, 0x00,
  0x18, 0x00, 0x00, 0x00, 0x73, 0x65, 0x71, 0x75, 0x65, 0x6e, 0x74, 0x69,
  0x61, 0x6c, 0x2f, 0x63, 0x6f, 0x6e, 0x76, 0x32, 0x64, 0x2f, 0x43, 0x6f,
  0x6e, 0x76, 0x32, 0x44, 0x00, 0x00, 0x00, 0x00, 0x30, 0xdf, 0xff, 0xff,
  0x3a, 0xe0, 0xff, 0xff, 0x04, 0x00, 0x00, 0x00, 0x00, 0x01, 0x00, 0x00,
  0xf8, 0x7a, 0xa6, 0xbb, 0x82, 0x86, 0x06, 0x3e, 0xb5, 0x73, 0x41, 0x3e,
  0x94, 0xee, 0x70, 0x3e, 0x68, 0xf6, 0x0a, 0x3e, 0x3e, 0x14, 0xab, 0x3d,
  0x58, 0xd1, 0x24, 0x3e, 0xa0, 0xa3, 0x30, 0xbe, 0xd8, 0x77, 0x79, 0x3e,
  0xa1, 0x03, 0xab, 0x3e, 0xea, 0x86, 0x94, 0x3e, 0xa2, 0xf3, 0xf5, 0xbe,
  0x99, 0xd6, 0x34, 0x3e, 0x97, 0xea, 0xd8, 0xbd, 0x1d, 0x5f, 0x9c, 0x3e,
  0xbb, 0x7e, 0x61, 0x3e, 0x25, 0x15, 0xaf, 0x3c, 0x9e, 0x46, 0x3f, 0xbe,
  0x57, 0x8e, 0x6b, 0x3e, 0x94, 0x22, 0x94, 0x3e, 0xb7, 0xe9, 0x1d, 0x3e,
  0x24, 0xa5, 0x49, 0x3d, 0x02, 0x47, 0x16, 0x3e, 0x43, 0x46, 0x50, 0x3e,
  0x04, 0x42, 0xe1, 0xbe, 0x93, 0x4b, 0x95, 0x3e, 0x75, 0x34, 0x4b, 0x3e,
  0x36, 0x6d, 0x0f, 0xbf, 0xea, 0xcc, 0x41, 0x3e, 0x77, 0xb8, 0xfc, 0xbd,
  0x67, 0xe1, 0x80, 0x3e, 0x09, 0xd0, 0x88, 0x3e, 0x50, 0x4c, 0xe5, 0xbd,
  0xe6, 0xa6, 0xd6, 0xbe, 0x70, 0x9b, 0x56, 0x3e, 0x59, 0x00, 0xad, 0x3e,
  0x17, 0xff, 0xf1, 0xbd, 0xd1, 0x94, 0xb4, 0x3d, 0x7f, 0xc3, 0x47, 0xbb,
  0xc5, 0xdf, 0x61, 0x3c, 0xc9, 0x4b, 0xee, 0x3c, 0xd6, 0x53, 0xdb, 0x3d,
  0xae, 0xf6, 0xe6, 0x3d, 0x70, 0x87, 0xce, 0xbe, 0x4e, 0x82, 0xa7, 0xbd,
  0xb3, 0xd1, 0x75, 0xbd, 0x73, 0xc9, 0x1a, 0x3e, 0x9d, 0xe3, 0xf5, 0x3d,
  0x16, 0x0d, 0xe6, 0xbc, 0x54, 0x0c, 0x8d, 0xbe, 0xbc, 0x92, 0x36, 0x3e,
  0x64, 0xd4, 0x8e, 0x3e, 0xfc, 0x3d, 0x3e, 0x3c, 0x8d, 0xd4, 0x6e, 0x3d,
  0x7d, 0x01, 0x39, 0x3e, 0x51, 0x6e, 0x81, 0x3e, 0x01, 0x19, 0x8a, 0xbe,
  0xe9, 0xad, 0x8c, 0x3e, 0xa8, 0x69, 0x98, 0x3e, 0x10, 0x67, 0xb2, 0xbe,
  0xfd, 0x2c, 0xbf, 0x3d, 0xab, 0xca, 0xe5, 0xbd, 0xd2, 0xe2, 0x6c, 0x3e,
  0xdd, 0x97, 0x0d, 0x3e, 0x12, 0xe1, 0xff, 0xff, 0x10, 0x00, 0x00, 0x00,
  0x08, 0x00, 0x00, 0x00, 0x14, 0x00, 0x00, 0x00, 0x30, 0x00, 0x00, 0x00,
  0x02, 0x00, 0x00, 0x00, 0x04, 0x00, 0x00, 0x00, 0x10, 0x00, 0x00, 0x00,
  0x19, 0x00, 0x00, 0x00, 0x73, 0x65, 0x71, 0x75, 0x65, 0x6e, 0x74, 0x69,
  0x61, 0x6c, 0x2f, 0x64, 0x65, 0x6e, 0x73, 0x65, 0x5f, 0x31, 0x2f, 0x4d,
  0x61, 0x74, 0x4d, 0x75, 0x6c, 0x00, 0x00, 0x00, 0x80, 0xe0, 0xff, 0xff,
  0x8a, 0xe1, 0xff, 0xff, 0x04, 0x00, 0x00, 0x00, 0x00, 0x1c, 0x00, 0x00,
  0xa1, 0x8d, 0x57, 0x3e, 0xed, 0x87, 0x15, 0x3e, 0x8a, 0x93, 0x9e, 0x3d,
  0x33, 0x2f, 0x85, 0x3e, 0xe2, 0xb3, 0x37, 0xbd, 0x63, 0x99, 0x76, 0xbd,
  0xdf, 0x94, 0x92, 0xbc, 0x81, 0xc0, 0x6d, 0x3e, 0xab, 0x5e, 0xbd, 0xba,
  0xab, 0x09, 0x06, 0xbe, 0x55, 0xe3, 0xcd, 0x3d, 0x60, 0x91, 0xf6, 0x3d,
  0x21, 0x73, 0xd5, 0xbc, 0x41, 0xc8, 0xa3, 0x3e, 0xa5, 0x9c, 0x80, 0xbe,
  0x91, 0x8f, 0x21, 0xbf, 0x97, 0xb8, 0xf9, 0xbe, 0x04, 0x3e, 0x39, 0xbe,
  0xe3, 0x24, 0x59, 0xbe, 0xac, 0x9c, 0x31, 0xbe, 0xa3, 0xd7, 0x25, 0xbf,
  0x6e, 0xbb, 0xaf, 0xbd, 0x1e, 0x36, 0xf9, 0xbe, 0x1a, 0x26, 0x04, 0xbd,
  0xd5, 0x29, 0xba, 0xbc, 0xde, 0x25, 0x7e, 0x3d, 0xd7, 0x9a, 0x1b, 0xbf,
  0xe8, 0x42, 0xb3, 0xbe, 0xd0, 0xfd, 0x86, 0xbd, 0xb1, 0xf6, 0x49, 0xbe,
  0xf7, 0x9d, 0x08, 0xbf, 0xb7, 0x39, 0x25, 0xbf, 0x74, 0x0b, 0xa9, 0xbe,
  0x24, 0x08, 0x6f, 0xbe, 0xcc, 0xbd, 0x2e, 0xbd, 0x2b, 0x16, 0xb8, 0xbd,
  0xed, 0x8c, 0x40, 0xbf, 0x07, 0x81, 0x48, 0xbe, 0x56, 0x61, 0xef, 0xbe,
  0x1a, 0x73, 0xe6, 0x3d, 0x24, 0x42, 0x49, 0xbb, 0xd8, 0xf5, 0xcb, 0x3d,
  0x87, 0xf7, 0xae, 0xbe, 0x4d, 0x26, 0xb6, 0xbe, 0xcf, 0x0a, 0x25, 0xbe,
  0x14, 0x27, 0x78, 0xbe, 0xa8, 0xca, 0xc2, 0xbe, 0x3a, 0x1e, 0xeb, 0xbe,
  0x24, 0x82, 0xa8, 0xbe, 0x70, 0xd5, 0xd9, 0xbc, 0xd6, 0x69, 0x9d, 0xbc,
  0x76, 0xc1, 0x66, 0xbe, 0x64, 0x69, 0x07, 0xbf, 0x72, 0xab, 0x33, 0xbe,
  0xe7, 0xf5, 0x9f, 0xbe, 0xd8, 0x64, 0xfd, 0x3d, 0xce, 0xb6, 0x63, 0xbc,
  0x3f, 0x8b, 0x1d, 0x3e, 0xc3, 0xbd, 0xb6, 0xbe, 0xe8, 0x61, 0x80, 0xbe,
  0xf9, 0x5f, 0x25, 0xbe, 0xbe, 0x04, 0x74, 0xbc, 0xed, 0x05, 0x20, 0xbe,
  0x7d, 0x91, 0x01, 0xbf, 0xe3, 0xe8, 0x6f, 0xbe, 0x9d, 0x3b, 0x1e, 0xbe,
  0x40, 0x7a, 0x82, 0x3c, 0x15, 0x4a, 0xaa, 0xbe, 0x89, 0x6f, 0x28, 0xbe,
  0xf3, 0x52, 0x31, 0xbe, 0xa3, 0xda, 0xa0, 0xbd, 0xb8, 0x4e, 0x2b, 0x3e,
  0xa0, 0x98, 0xee, 0x3c, 0x63, 0x11, 0x08, 0x3e, 0xfe, 0xc9, 0xce, 0xbd,
  0xc2, 0xcc, 0xff, 0xbe, 0xeb, 0x16, 0x17, 0x3e, 0x80, 0x5a, 0x9f, 0xbd,
  0xfd, 0x3c, 0x23, 0xbe, 0x34, 0xc5, 0x17, 0xbf, 0xdc, 0x48, 0x29, 0x3e,
  0xb3, 0x95, 0xb5, 0x3e, 0x7b, 0x6b, 0x01, 0xbd, 0x09, 0xe3, 0xc5, 0xbd,
  0xf7, 0x79, 0x6b, 0x3d, 0xc8, 0x5f, 0x50, 0x3c, 0x2d, 0x1d, 0x45, 0xbe,
  0xab, 0x31, 0x8e, 0x3d, 0x9b, 0x2f, 0x1b, 0xbc, 0xcd, 0xa1, 0x58, 0x3e,
  0x39, 0x68, 0x9c, 0x3d, 0x89, 0x49, 0x85, 0xbe, 0x00, 0xab, 0x70, 0xbe,
  0x0f, 0x7c, 0xb9, 0x3d, 0x0e, 0xd7, 0xc0, 0xbc, 0x4b, 0xa6, 0x21, 0xbf,
  0xae, 0x34, 0xde, 0x3d, 0x5a, 0xda, 0x01, 0xbc, 0x66, 0x18, 0x02, 0x3c,
  0x66, 0xfe, 0xb1, 0xbd, 0xe9, 0xa2, 0xc9, 0x3d, 0xa5, 0x0e, 0xa3, 0x3d,
  0x12, 0x4c, 0xf8, 0xbb, 0x11, 0x43, 0xf7, 0xbc, 0x6f, 0xe5, 0x03, 0x3b,
  0xc3, 0x42, 0x26, 0x3e, 0xb7, 0x05, 0xff, 0x3c, 0x1f, 0xa7, 0xef, 0x3d,
  0x5d, 0xae, 0x8a, 0xbe, 0x19, 0x48, 0x1d, 0x3c, 0x33, 0x79, 0x60, 0xbe,
  0x36, 0x07, 0x8e, 0x3c, 0x62, 0x1c, 0xe5, 0x3c, 0x3f, 0xc4, 0x0e, 0xbe,
  0xc5, 0x5c, 0x2b, 0xbe, 0x10, 0x7d, 0xee, 0x3e, 0xdc, 0xba, 0x18, 0xbd,
  0x10, 0x94, 0x4c, 0xbe, 0xb3, 0x01, 0x2f, 0xbe, 0xfe, 0x12, 0xed, 0xbc,
  0x2a, 0x69, 0x15, 0xbe, 0x20, 0xee, 0xa3, 0xbd, 0x6a, 0x60, 0x82, 0x3d,
  0x39, 0x67, 0x47, 0xbe, 0x69, 0xde, 0x37, 0x3f, 0x8b, 0x82, 0x58, 0x3d,
  0xa8, 0xdc, 0x63, 0xb8, 0x7a, 0x16, 0x0f, 0xbd, 0xde, 0x0f, 0x09, 0xbe,
  0x40, 0xc1, 0xb3, 0xbd, 0x43, 0x1a, 0xbb, 0xbd, 0x7b, 0xe4, 0x0f, 0xbe,
  0xd0, 0xc8, 0xc2, 0x3d, 0xbc, 0xf1, 0xa4, 0xbe, 0xfa, 0xdd, 0xe7, 0xbc,
  0xb5, 0xc5, 0x3c, 0xbe, 0x0b, 0x09, 0xb4, 0xbd, 0x90, 0xf4, 0x70, 0x3d,
  0x6b, 0xa0, 0xd6, 0xbd, 0xaa, 0x64, 0x65, 0xbe, 0x18, 0x1b, 0x91, 0x3f,
  0x67, 0x35, 0x05, 0xbe, 0xb7, 0x49, 0x48, 0xbd, 0x6d, 0xee, 0x38, 0xbe,
  0x50, 0xa3, 0x01, 0xbe, 0x65, 0xb9, 0xeb, 0x3d, 0x3b, 0xb9, 0x9c, 0xbd,
  0x7f, 0x5e, 0xce, 0x3e, 0x18, 0xb5, 0xf7, 0xbb, 0x0a, 0x2c, 0x29, 0xbe,
  0x8f, 0xa9, 0x2a, 0xbe, 0x39, 0x6f, 0x8f, 0xbd, 0x7b, 0x96, 0x4d, 0xbd,
  0x7d, 0xdb, 0x51, 0x3d, 0x6d, 0x26, 0x0d, 0xbd, 0x87, 0x99, 0x81, 0xbe,
  0xe3, 0x9e, 0x71, 0x3f, 0x66, 0x49, 0x09, 0xbe, 0xc8, 0x49, 0x4b, 0xbe,
  0x46, 0x4e, 0xd2, 0xbd, 0x5a, 0xc6, 0xc5, 0xbd, 0x30, 0x50, 0x84, 0xbd,
  0xd4, 0xf9, 0x9f, 0xbe, 0x2b, 0xec, 0x26, 0x3f, 0xee, 0x72, 0x49, 0xbe,
  0xcc, 0x35, 0x2e, 0xbe, 0x09, 0x37, 0x8f, 0x3d, 0xdd, 0x50, 0x4e, 0xbe,
  0x91, 0xd9, 0x2e, 0xbe, 0x8c, 0x7d, 0x82, 0xbd, 0x95, 0x7d, 0xeb, 0xbd,
  0xd3, 0x69, 0x4e, 0xbe, 0x17, 0x1e, 0x7a, 0x3f, 0x6d, 0xdc, 0xfc, 0x3d,
  0xbe, 0x8e, 0x22, 0xbb, 0xdd, 0x44, 0x88, 0x3c, 0xd5, 0xf6, 0x55, 0x3d,
  0xfe, 0xf8, 0x36, 0x3d, 0x75, 0x8b, 0xab, 0xbd, 0x45, 0xa3, 0x20, 0x3f,
  0x74, 0x5c, 0x31, 0xbe, 0x09, 0x62, 0x9b, 0xbd, 0x85, 0xd4, 0x92, 0x3c,
  0x6b, 0xaa, 0x19, 0x3e, 0x56, 0xd8, 0x58, 0xbd, 0x4c, 0xe0, 0x27, 0xbe,
  0xb1, 0x46, 0xcd, 0xbd, 0x28, 0x86, 0x2e, 0xbe, 0xeb, 0xc3, 0x6b, 0x3f,
  0x11, 0xdc, 0x2a, 0xbc, 0x4c, 0xea, 0x0a, 0x3d, 0x7a, 0xb8, 0xc2, 0xbc,
  0x33, 0x38, 0x28, 0xbd, 0x9b, 0x6a, 0x24, 0xbe, 0x6e, 0x9a, 0x16, 0xbe,
  0x9e, 0xa5, 0xa4, 0x3e, 0xac, 0x8e, 0x26, 0x3d, 0xc7, 0x0e, 0x92, 0xbe,
  0xa4, 0x38, 0xf4, 0xb9, 0x90, 0xf0, 0xcf, 0x3d, 0x6a, 0x66, 0x80, 0xbd,
  0x6c, 0xe3, 0x7a, 0xbe, 0x70, 0x15, 0xb3, 0x3d, 0x76, 0xd8, 0xfa, 0xbc,
  0x7b, 0x33, 0x8e, 0x3f, 0xed, 0x49, 0x42, 0xbe, 0xe7, 0xd0, 0x6f, 0x3d,
  0x7a, 0xe9, 0xf7, 0x3c, 0xe6, 0xab, 0x50, 0x3c, 0x20, 0xdf, 0x53, 0x3d,
  0x64, 0x5f, 0x80, 0xbe, 0xdf, 0x64, 0x56, 0xbe, 0xe9, 0x72, 0x4f, 0xbe,
  0xbd, 0xef, 0x8e, 0xbe, 0x71, 0xb7, 0x5e, 0xbe, 0xde, 0x61, 0x14, 0xbe,
  0x3e, 0xec, 0x75, 0xbe, 0x6b, 0x2c, 0xc9, 0x3d, 0x59, 0x36, 0x02, 0xbe,
  0x00, 0x46, 0x16, 0xbe, 0x2f, 0x18, 0x41, 0x3f, 0xe7, 0x78, 0x76, 0xbe,
  0xec, 0x68, 0xf8, 0xbd, 0x40, 0x70, 0xab, 0xbd, 0x41, 0xc3, 0x6b, 0x3e,
  0x42, 0x6f, 0x48, 0x3e, 0x8e, 0x06, 0xa0, 0x3b, 0x72, 0xa6, 0xb8, 0x3e,
  0x36, 0xe9, 0xf8, 0xbd, 0xfa, 0x70, 0x9c, 0xbd, 0xef, 0xd8, 0xc2, 0x3d,
  0x07, 0x1c, 0x23, 0x3e, 0xe3, 0xa2, 0x88, 0xbd, 0x0f, 0xc1, 0x8b, 0xbe,
  0xdd, 0x1f, 0xbc, 0x3d, 0xba, 0xa1, 0x8a, 0xbc, 0xfc, 0xb4, 0x80, 0x3f,
  0x2d, 0x91, 0x3c, 0x3e, 0xd4, 0xba, 0x02, 0xbd, 0x96, 0x81, 0x66, 0x3e,
  0x0b, 0x3f, 0xa4, 0x3d, 0xde, 0x68, 0x49, 0x3e, 0xf4, 0xe8, 0x34, 0xbe,
  0x79, 0x88, 0x96, 0x3d, 0x46, 0xdf, 0x64, 0x3d, 0x54, 0x03, 0xf6, 0xbd,
  0xd4, 0xe2, 0xa1, 0x3d, 0x59, 0x0b, 0x4b, 0xbd, 0xcf, 0x6d, 0x3f, 0xbd,
  0x33, 0x7b, 0x98, 0xbe, 0x13, 0xce, 0x02, 0x3e, 0x59, 0xe6, 0x43, 0xbd,
  0xc6, 0x21, 0x08, 0x3f, 0x29, 0x68, 0xaf, 0xbe, 0xcc, 0xb0, 0xb0, 0xbd,
  0x2d, 0x0f, 0x5e, 0xbd, 0x10, 0x6d, 0xeb, 0xbe, 0x3d, 0x98, 0x39, 0x3d,
  0xa6, 0x85, 0xbf, 0xbc, 0x29, 0xa9, 0x70, 0x3e, 0x96, 0xee, 0xa6, 0xbd,
  0xeb, 0xba, 0x8a, 0xbe, 0xa8, 0x15, 0x24, 0x3e, 0x10, 0x63, 0x01, 0x3c,
  0xe1, 0xc3, 0x06, 0xbe, 0xf2, 0x5b, 0x53, 0xbc, 0x51, 0x8d, 0xbb, 0x3c,
  0x06, 0x7d, 0xc6, 0x3d, 0xcf, 0xa6, 0x08, 0x3f, 0xe7, 0x3c, 0x24, 0xbe,
  0x22, 0x38, 0xb1, 0x3c, 0x22, 0x61, 0xa3, 0xbd, 0x62, 0xf1, 0xc9, 0xbe,
  0x73, 0x96, 0xd8, 0xbe, 0xb6, 0xd1, 0x30, 0xbd, 0x70, 0xfa, 0xbb, 0xbd,
  0xba, 0x28, 0x70, 0xbe, 0xaa, 0x99, 0x92, 0xbe, 0xdc, 0x6f, 0x3e, 0x3e,
  0xb0, 0x92, 0x37, 0x3e, 0x48, 0x49, 0x71, 0xbd, 0xac, 0x0e, 0x71, 0xbd,
  0x7f, 0x59, 0x3c, 0xbe, 0xb4, 0x53, 0xb5, 0xbd, 0x45, 0x5a, 0x36, 0x3f,
  0x0a, 0xd0, 0xaf, 0x3d, 0xe2, 0xb5, 0xc3, 0xbd, 0x1a, 0x28, 0xc2, 0xbc,
  0x1f, 0x40, 0x39, 0x3d, 0x0e, 0x3a, 0x76, 0x3e, 0x07, 0x21, 0xe5, 0xbc,
  0x76, 0xf3, 0xf0, 0x3b, 0x7f, 0x4a, 0x70, 0x3d, 0x38, 0x57, 0x99, 0xbd,
  0x68, 0x54, 0x37, 0x3d, 0x2b, 0xf4, 0xe5, 0x3d, 0xb8, 0x99, 0x99, 0xbd,
  0xca, 0x2a, 0xbf, 0x3e, 0x1f, 0x73, 0x50, 0x3e, 0xab, 0x26, 0x33, 0xbe,
  0xf8, 0x77, 0x22, 0x3f, 0xbe, 0xc8, 0x42, 0xbe, 0xb7, 0xb9, 0xd0, 0x3d,
  0x8f, 0x65, 0x97, 0xbd, 0x41, 0x4f, 0x13, 0x3e, 0x41, 0xc4, 0xee, 0x3d,
  0xb7, 0x77, 0x3c, 0x3d, 0x2e, 0x3d, 0x39, 0xbe, 0xf4, 0xf8, 0x6e, 0x3b,
  0x3e, 0x25, 0x24, 0xbd, 0xe8, 0x7f, 0x31, 0x3e, 0x99, 0x5d, 0x94, 0x3d,
  0x20, 0xb6, 0x2a, 0x3d, 0xb4, 0xf8, 0xa5, 0x3e, 0x45, 0xdd, 0x1e, 0x3e,
  0x20, 0x3a, 0x04, 0xbe, 0x8e, 0x6c, 0x20, 0x3f, 0xca, 0x6a, 0x08, 0x3e,
  0x20, 0xe0, 0x2f, 0x3e, 0x17, 0x11, 0x3d, 0xbe, 0x85, 0x1f, 0xa7, 0xbd,
  0xb9, 0x19, 0x50, 0x3e, 0x2f, 0x1e, 0x4d, 0x3d, 0x50, 0xcb, 0x9a, 0x3d,
  0xaa, 0x43, 0xa7, 0x3d, 0x99, 0x50, 0x11, 0xbb, 0x48, 0x50, 0x4a, 0x3e,
  0x7f, 0xe8, 0x6a, 0xbe, 0x98, 0x80, 0x75, 0x3d, 0x24, 0x31, 0x0c, 0xbd,
  0x1f, 0xa9, 0x5d, 0x3e, 0xec, 0x1f, 0xf4, 0xbc, 0x55, 0xdf, 0x4d, 0x3f,
  0xce, 0xc2, 0xbe, 0x3c, 0x6c, 0x50, 0x93, 0xbd, 0x5c, 0x8b, 0xa0, 0x3c,
  0x54, 0xd8, 0x0d, 0x3e, 0xaf, 0xa2, 0xdf, 0xbb, 0x43, 0x1a, 0xe0, 0xbc,
  0x45, 0x35, 0x0c, 0x3c, 0x9e, 0x95, 0xb9, 0xbd, 0x5a, 0xe7, 0x0c, 0xbe,
  0xf8, 0x0a, 0x1a, 0x3e, 0xa6, 0x48, 0x50, 0xbd, 0x31, 0x0d, 0x07, 0xbf,
  0x85, 0x28, 0x05, 0xbe, 0x03, 0x21, 0xa0, 0x3e, 0x9e, 0x30, 0xc5, 0xbc,
  0x6a, 0xa2, 0x0f, 0xbe, 0xc3, 0x9d, 0x28, 0xbc, 0x21, 0x7e, 0x79, 0x3e,
  0x03, 0x2e, 0x5e, 0x3e, 0x00, 0x7e, 0x14, 0x3d, 0x45, 0x4d, 0x51, 0x3e,
  0x07, 0xb1, 0xe6, 0x3c, 0xe0, 0x91, 0x86, 0xbe, 0xe1, 0xe2, 0x67, 0x3e,
  0x75, 0xe1, 0xf7, 0xbd, 0x4c, 0x7f, 0x00, 0x3f, 0xd5, 0x62, 0x8a, 0x3e,
  0xe1, 0x4c, 0x95, 0xbe, 0x41, 0x89, 0xe5, 0x3d, 0x3e, 0x68, 0xa1, 0xbd,
  0x2f, 0xdc, 0xa1, 0x3d, 0xc8, 0x77, 0xaf, 0xbd, 0xe2, 0x57, 0x9c, 0x3e,
  0x63, 0x7a, 0xa9, 0xbc, 0xe1, 0x6d, 0xa3, 0xbd, 0xa2, 0xea, 0xe6, 0xbd,
  0x7a, 0x89, 0x5c, 0x3e, 0x48, 0xfc, 0x38, 0xbe, 0xbe, 0x51, 0x3a, 0x3e,
  0x17, 0xf7, 0xf9, 0x3d, 0xb8, 0x91, 0xc8, 0x3d, 0xfb, 0xd0, 0x1c, 0x3f,
  0xcb, 0xa7, 0x1c, 0xbd, 0x07, 0x4d, 0x14, 0xbf, 0xce, 0xd4, 0x9d, 0xbe,
  0x7a, 0x4e, 0x1e, 0x3e, 0xd5, 0xdf, 0xdf, 0xbd, 0x7e, 0x65, 0x14, 0xbe,
  0x6e, 0xc1, 0x13, 0x3d, 0x57, 0x03, 0x7f, 0xbe, 0xe7, 0x6b, 0xf8, 0xbd,
  0x55, 0x55, 0x65, 0x3d, 0x9e, 0xf6, 0x4e, 0x3e, 0xa2, 0x1b, 0x7d, 0xbe,
  0x82, 0xd2, 0x90, 0x3e, 0xf7, 0x42, 0x06, 0x3d, 0xed, 0x69, 0xbb, 0xbd,
  0xfe, 0x84, 0x9d, 0x3e, 0x06, 0x96, 0x9a, 0xbe, 0x78, 0x46, 0x84, 0xbe,
  0x88, 0x9f, 0x1c, 0xbe, 0x28, 0x45, 0xc4, 0x3e, 0x94, 0x88, 0x6c, 0x3e,
  0x26, 0x46, 0x6b, 0xbe, 0xa1, 0xf4, 0xac, 0xbe, 0x36, 0x9e, 0x45, 0xbb,
  0x7d, 0x25, 0x60, 0x3d, 0x16, 0x6f, 0x03, 0xbe, 0xb1, 0xd2, 0x72, 0x3c,
  0xa2, 0x40, 0xb1, 0x3b, 0xaf, 0x06, 0x76, 0x3e, 0x73, 0x56, 0x10, 0xbe,
  0x9d, 0x5b, 0x0b, 0xbe, 0xf9, 0xa7, 0x37, 0x3e, 0x3e, 0xc6, 0x96, 0x3e,
  0x2d, 0x09, 0x21, 0xbe, 0xbb, 0x03, 0xf7, 0x3d, 0xf5, 0x85, 0x1d, 0x3e,
  0x67, 0x39, 0xb2, 0xbd, 0x52, 0x6d, 0x7d, 0xbd, 0x0b, 0x9b, 0x51, 0x3d,
  0x49, 0xf4, 0x12, 0x3e, 0xe4, 0x67, 0xdf, 0x3b, 0xd7, 0x3f, 0x96, 0xbe,
  0xa0, 0x61, 0x2c, 0xbe, 0x4c, 0x14, 0xa0, 0x3d, 0x7e, 0x66, 0x45, 0x3e,
  0xb7, 0x41, 0xad, 0xbd, 0x51, 0x6d, 0x2e, 0xbe, 0x2c, 0x90, 0xc1, 0x3e,
  0x19, 0x3f, 0xce, 0x3e, 0x6d, 0x67, 0x21, 0xbe, 0xb3, 0x77, 0x76, 0xbe,
  0x4d, 0xbe, 0xc5, 0x3e, 0x11, 0xc4, 0xc7, 0x3e, 0x39, 0x2e, 0x64, 0xbe,
  0xf9, 0xfd, 0x3f, 0x3e, 0x9c, 0xef, 0xa0, 0x3e, 0x4b, 0x56, 0x29, 0x3c,
  0xab, 0x1b, 0x97, 0xbd, 0x65, 0xfd, 0xec, 0x3d, 0x10, 0x22, 0x21, 0x3e,
  0xc7, 0xf6, 0xed, 0xbe, 0x1c, 0xdf, 0xbf, 0xbb, 0xf0, 0xec, 0xcc, 0xbd,
  0x05, 0xf1, 0xab, 0x3e, 0x55, 0x44, 0x0d, 0x3e, 0x7e, 0x89, 0x00, 0x3d,
  0x00, 0xbe, 0x7c, 0x3d, 0xf4, 0x74, 0x40, 0x3e, 0x20, 0x5b, 0x76, 0x3e,
  0x58, 0x71, 0x6b, 0x3d, 0xc7, 0x1a, 0xbb, 0x3d, 0x3a, 0x91, 0x07, 0xbd,
  0xa5, 0x1f, 0xe1, 0x3c, 0xa8, 0xb9, 0xd9, 0x3d, 0x06, 0x8a, 0x3a, 0x3d,
  0xbf, 0xf1, 0x00, 0x3d, 0xbd, 0xcc, 0xc0, 0xbc, 0xb0, 0x64, 0x3a, 0xbc,
  0x0b, 0xaa, 0x12, 0x3e, 0x3e, 0xe2, 0xfb, 0xbc, 0xa4, 0x77, 0xae, 0xbe,
  0x17, 0x03, 0x11, 0x3d, 0xc5, 0x90, 0x58, 0x3e, 0xc2, 0x96, 0x27, 0x3e,
  0xb5, 0xd5, 0x0a, 0xbe, 0xdb, 0xe1, 0xfe, 0xbd, 0x41, 0x87, 0xab, 0x3d,
  0x9a, 0x1b, 0x32, 0xbe, 0x04, 0xb0, 0xa0, 0xbd, 0x29, 0xc5, 0x4b, 0x3e,
  0xf0, 0x4d, 0xca, 0x3c, 0xd1, 0xbf, 0x07, 0xbe, 0x2d, 0x84, 0xf1, 0x3c,
  0xe3, 0x88, 0x11, 0x3e, 0x7e, 0xdc, 0xe3, 0x3c, 0x81, 0x2d, 0x77, 0x3d,
  0xb4, 0xfc, 0x14, 0xbe, 0x78, 0x46, 0x33, 0x3c, 0x00, 0x6c, 0x58, 0xbe,
  0xca, 0x5e, 0x95, 0xbd, 0xf2, 0xe8, 0xc3, 0xbe, 0x2e, 0x81, 0x0f, 0xbe,
  0xde, 0x62, 0x26, 0x3e, 0x07, 0x78, 0x94, 0xbd, 0x32, 0x22, 0x39, 0xbe,
  0xe7, 0xc0, 0x73, 0xbe, 0xc5, 0x74, 0xf2, 0xbd, 0x59, 0x5f, 0x28, 0xbf,
  0xad, 0xa3, 0x6b, 0x3e, 0xd5, 0x19, 0x67, 0xbe, 0xc8, 0x38, 0x6b, 0xbd,
  0xa3, 0xe0, 0x71, 0xbe, 0x93, 0xa6, 0x52, 0xbd, 0xf4, 0x4c, 0x21, 0xbe,
  0x0b, 0x83, 0xdf, 0xbd, 0xa7, 0x5b, 0xb9, 0xbe, 0x0d, 0x5b, 0x8d, 0xbe,
  0xe8, 0xaa, 0x1f, 0x3d, 0x5a, 0x0f, 0x74, 0xbe, 0x4f, 0x6e, 0x98, 0xbe,
  0xc8, 0x1b, 0xb7, 0xbc, 0xfa, 0x65, 0x03, 0xbf, 0xa8, 0xc0, 0xec, 0x3c,
  0xe0, 0x6a, 0x06, 0xbf, 0x23, 0x95, 0x8e, 0xbe, 0xda, 0x82, 0x1e, 0xbf,
  0x18, 0x8d, 0xa5, 0xbd, 0xd1, 0xa3, 0x8b, 0xbe, 0x16, 0x50, 0xdb, 0x3d,
  0xc2, 0xae, 0xfb, 0xbd, 0x1c, 0x9c, 0xc0, 0x3c, 0xcb, 0xce, 0x84, 0xbe,
  0xde, 0xd5, 0xd0, 0xbd, 0xe3, 0xa9, 0x46, 0x3c, 0x40, 0xb3, 0x14, 0xbe,
  0x86, 0x9c, 0x5d, 0xbd, 0x9f, 0x79, 0x2b, 0xbe, 0x41, 0xcf, 0x9c, 0xbe,
  0xae, 0x17, 0x3f, 0xbe, 0x75, 0x2b, 0x94, 0xbe, 0xc0, 0x4b, 0x96, 0xbe,
  0xef, 0xa9, 0xce, 0xbd, 0x00, 0x69, 0x32, 0xbe, 0x91, 0xc2, 0x33, 0xbd,
  0x0c, 0xbb, 0xd9, 0x3d, 0xad, 0x2a, 0xb0, 0xbb, 0xd7, 0x08, 0x3d, 0xbe,
  0x7b, 0x82, 0x7f, 0xbe, 0x8a, 0xba, 0x1e, 0xbe, 0x46, 0xe1, 0x2b, 0x3d,
  0xf2, 0x90, 0x79, 0xbe, 0xd3, 0x32, 0x17, 0xbe, 0x3e, 0xed, 0x25, 0xbe,
  0x91, 0x38, 0x76, 0xbe, 0x46, 0xe7, 0x13, 0x3e, 0x6f, 0x6a, 0x5b, 0xbe,
  0xf0, 0xf0, 0x6b, 0xbe, 0xdc, 0x2e, 0x99, 0xbc, 0x0f, 0x23, 0x08, 0xbe,
  0x79, 0xf9, 0x6d, 0xbe, 0x4f, 0x7e, 0xf4, 0x3d, 0xe8, 0x0b, 0xbe, 0xbc,
  0x53, 0x52, 0xc0, 0xba, 0x3b, 0x9e, 0xf4, 0x3d, 0x92, 0xfd, 0x44, 0xbd,
  0x0f, 0x2b, 0x4d, 0x3e, 0xd2, 0xce, 0xa3, 0xbd, 0xe3, 0xa2, 0xcd, 0x3c,
  0x9f, 0x1c, 0x36, 0xbd, 0xb3, 0xc9, 0x3e, 0xbe, 0x2d, 0x45, 0x45, 0x3e,
  0x98, 0xf6, 0x9c, 0xbe, 0x32, 0x76, 0x0a, 0xbb, 0x63, 0x92, 0x72, 0xbe,
  0xd0, 0x1d, 0x19, 0xbd, 0x38, 0x21, 0x00, 0x3e, 0x2e, 0x0d, 0xf5, 0xbd,
  0xaa, 0x14, 0xa4, 0xbd, 0x49, 0x98, 0x3d, 0xbe, 0x49, 0x5f, 0xea, 0xbd,
  0x92, 0x5e, 0x8e, 0xbd, 0x70, 0x9a, 0x1e, 0x3d, 0x06, 0xda, 0xcc, 0xbd,
  0xe3, 0xdf, 0xd3, 0xbe, 0x5c, 0xe4, 0x17, 0xbd, 0x12, 0x16, 0x3f, 0xbe,
  0xfc, 0xb1, 0x4d, 0xbe, 0x91, 0x1c, 0x16, 0xbe, 0x52, 0x68, 0x08, 0x3f,
  0x6e, 0xf9, 0x09, 0xbe, 0xf1, 0x96, 0x26, 0xbe, 0xa8, 0xc4, 0x4f, 0x3d,
  0x68, 0x0a, 0x2f, 0x3d, 0xe5, 0x53, 0x59, 0xbe, 0x90, 0xa9, 0xc2, 0xbd,
  0x17, 0x7e, 0x97, 0x3e, 0x38, 0x8b, 0x44, 0xbc, 0x5b, 0x5c, 0x60, 0x3f,
  0xa2, 0x04, 0x5e, 0x3d, 0x5c, 0x5e, 0xc5, 0x3d, 0x67, 0x37, 0x10, 0xbd,
  0x36, 0xdf, 0xf1, 0xbb, 0x27, 0x67, 0xe6, 0xbb, 0x74, 0x14, 0x08, 0xbd,
  0xa0, 0x12, 0x12, 0x3f, 0xf7, 0x4c, 0x12, 0x3e, 0xb5, 0x3d, 0x8b, 0xbd,
  0xb9, 0x2c, 0x33, 0x3e, 0x6d, 0x43, 0xc2, 0x3e, 0x36, 0x18, 0x2d, 0xbe,
  0xb8, 0x9b, 0xd1, 0xbd, 0xc4, 0xd3, 0x1f, 0x3e, 0x93, 0xf3, 0x96, 0x3e,
  0xf5, 0x19, 0x98, 0x3f, 0x2a, 0xa1, 0xa4, 0x3d, 0x03, 0xab, 0x12, 0x3e,
  0x9d, 0xdc, 0xc5, 0x3b, 0x3a, 0x7d, 0x91, 0x3e, 0x9c, 0xa9, 0xb1, 0xbe,
  0x05, 0x5b, 0xe1, 0xbd, 0x01, 0xb0, 0x29, 0x3f, 0xa1, 0xae, 0xc9, 0x3e,
  0xb5, 0x1b, 0x46, 0x3d, 0x26, 0x80, 0xa2, 0x3e, 0x0c, 0x9b, 0x8e, 0x3d,
  0x31, 0x2e, 0xec, 0xbd, 0x2b, 0x71, 0x43, 0xbe, 0x89, 0x4d, 0x87, 0x3e,
  0xc9, 0x1d, 0xf0, 0x3d, 0x4a, 0xce, 0x92, 0x3f, 0xbc, 0xf8, 0x1c, 0x3e,
  0x70, 0xbf, 0x24, 0xbe, 0xb1, 0x1d, 0x9b, 0xbe, 0xfa, 0xef, 0x05, 0x3e,
  0x35, 0xd6, 0x8e, 0xbe, 0xe9, 0x55, 0x7c, 0xbe, 0xdb, 0x4a, 0x06, 0x3f,
  0x1c, 0x0d, 0xd3, 0x3d, 0x95, 0xba, 0xf9, 0x3d, 0x32, 0x83, 0x59, 0x3e,
  0xc9, 0x9f, 0x00, 0x3f, 0xb2, 0xf8, 0x40, 0xbe, 0xa3, 0x54, 0x3c, 0xbe,
  0xeb, 0x75, 0x8d, 0x3d, 0x47, 0x55, 0x03, 0x3d, 0xc9, 0x28, 0x95, 0x3f,
  0xac, 0x73, 0x0e, 0x3e, 0xd9, 0xf7, 0x01, 0x3d, 0x87, 0xaa, 0xc4, 0xbe,
  0x3a, 0x7e, 0x88, 0xbe, 0x38, 0xbe, 0xa4, 0xbe, 0x7a, 0x0a, 0x86, 0xbe,
  0xba, 0x53, 0x22, 0x3f, 0x5a, 0x01, 0x6c, 0x3e, 0xac, 0xeb, 0x0a, 0x3d,
  0x84, 0x07, 0xb0, 0x3e, 0x1a, 0x8e, 0xe0, 0x3e, 0xe0, 0xe1, 0xfb, 0xbd,
  0xc7, 0xb0, 0xdf, 0xbe, 0x81, 0x31, 0x4b, 0x3d, 0xda, 0xfe, 0x7e, 0x3e,
  0x1f, 0x36, 0x8f, 0x3f, 0x55, 0x20, 0x57, 0x3e, 0x6f, 0x6c, 0x8b, 0x3e,
  0x6b, 0xdf, 0x13, 0xbf, 0x7c, 0x25, 0x4f, 0xbe, 0xa3, 0x90, 0xd8, 0xbe,
  0xe3, 0x80, 0x9d, 0xbe, 0x5f, 0x7e, 0x32, 0x3f, 0xaa, 0xc4, 0x3d, 0x3e,
  0x5e, 0xff, 0x12, 0x3e, 0xf3, 0xd0, 0x1b, 0x3e, 0x08, 0x36, 0xc9, 0x3e,
  0x12, 0xf2, 0xc4, 0xbd, 0x20, 0xfb, 0x93, 0xbe, 0x3d, 0x4c, 0xe7, 0x3d,
  0x48, 0x0e, 0xf3, 0x3d, 0x00, 0x6f, 0x7f, 0x3f, 0x78, 0xb0, 0xf4, 0xbd,
  0x23, 0x3b, 0x1b, 0x3e, 0xab, 0x32, 0x30, 0xbe, 0xca, 0x35, 0x07, 0x3c,
  0xca, 0x4e, 0xde, 0xbd, 0x95, 0x83, 0x1e, 0xbe, 0xf7, 0x5d, 0x2d, 0x3e,
  0xae, 0x35, 0x6a, 0x3d, 0x47, 0x12, 0x16, 0xbd, 0x00, 0x41, 0x5d, 0x3e,
  0xbf, 0xe7, 0x85, 0x3e, 0xd3, 0x9d, 0x06, 0xbe, 0xaf, 0x7a, 0x99, 0xbd,
  0x76, 0x49, 0xd5, 0xbd, 0x5c, 0xbd, 0xa5, 0x3d, 0x98, 0x59, 0x89, 0x3f,
  0x06, 0x08, 0xe7, 0xbd, 0x2e, 0x3a, 0xfe, 0xbd, 0x05, 0x26, 0x25, 0x3e,
  0xa9, 0xbb, 0x43, 0xbe, 0x7a, 0x27, 0x34, 0xbe, 0xca, 0x1f, 0x91, 0xbe,
  0x43, 0xae, 0xb1, 0xbe, 0x24, 0xd0, 0x7c, 0xbd, 0x24, 0xe7, 0xf0, 0xbd,
  0x9b, 0xb6, 0x5a, 0x3e, 0x90, 0xdf, 0x16, 0xbc, 0x24, 0x28, 0xd9, 0x3d,
  0x1c, 0x61, 0x3c, 0x3e, 0xb3, 0xcf, 0x17, 0xbe, 0x8d, 0x79, 0xef, 0xbd,
  0x98, 0x61, 0xd6, 0xbd, 0x8f, 0x97, 0x88, 0xbe, 0xf6, 0x6a, 0xfe, 0xbd,
  0xf2, 0x15, 0xd2, 0xbd, 0x61, 0xe0, 0x50, 0xbc, 0xb2, 0xc1, 0xc4, 0xbd,
  0x6d, 0xb7, 0xe8, 0xbd, 0xde, 0x9a, 0xd7, 0xbe, 0xda, 0x4c, 0x34, 0xbe,
  0xf9, 0x83, 0xce, 0x3d, 0x08, 0x49, 0x9a, 0xbd, 0xba, 0x69, 0x28, 0x3d,
  0x02, 0x86, 0xea, 0xbc, 0x24, 0x95, 0x95, 0x3d, 0xef, 0x8a, 0x38, 0x3e,
  0x7a, 0xc4, 0x40, 0xbe, 0x11, 0x70, 0xdd, 0xbd, 0x3a, 0x5b, 0x9c, 0xbd,
  0x5a, 0x7a, 0x6b, 0xbd, 0xf6, 0xfe, 0x0d, 0x3e, 0x26, 0x17, 0xec, 0xbd,
  0xd2, 0x2f, 0xb3, 0x3d, 0x1b, 0x85, 0xbd, 0xbd, 0x39, 0x99, 0xaa, 0xbe,
  0x6f, 0xd5, 0x86, 0xbe, 0xb5, 0xa6, 0x49, 0x3d, 0xd2, 0xbf, 0x2f, 0x3d,
  0x9b, 0x8c, 0xf5, 0xbd, 0x9f, 0x4e, 0xc9, 0x3d, 0x04, 0x08, 0x47, 0x3d,
  0x09, 0x7c, 0x60, 0x3d, 0x7c, 0xc2, 0xf2, 0xbd, 0x91, 0x06, 0xe7, 0xbd,
  0x56, 0xf2, 0x9c, 0x3d, 0xc6, 0x68, 0x07, 0xbe, 0xe2, 0x2b, 0xaf, 0x3d,
  0x5a, 0xc1, 0xe7, 0xbd, 0xa9, 0xbe, 0x58, 0x3e, 0x6c, 0x08, 0x85, 0xbe,
  0x25, 0xb9, 0x4c, 0xbe, 0xf8, 0xd1, 0x35, 0xbe, 0xe0, 0x97, 0x80, 0x3c,
  0x64, 0x59, 0xe0, 0xbd, 0x36, 0x84, 0xc8, 0xbb, 0xa7, 0x51, 0x34, 0x3d,
  0xa3, 0x13, 0x20, 0x3e, 0x30, 0x41, 0xb8, 0xbd, 0x94, 0xd0, 0xc2, 0xbc,
  0xab, 0x7c, 0x18, 0xbd, 0x00, 0x1c, 0x29, 0x3d, 0xe3, 0x36, 0x77, 0xbd,
  0xbc, 0x24, 0xd9, 0x3d, 0xd9, 0x46, 0x84, 0x3d, 0x42, 0xee, 0x54, 0x3d,
  0xf9, 0xc8, 0xe1, 0xbe, 0xde, 0x44, 0x8a, 0xbe, 0x79, 0x1e, 0x3a, 0xbe,
  0x17, 0xe3, 0xd6, 0x3c, 0xab, 0x8d, 0x04, 0x3e, 0x4b, 0x44, 0x14, 0x3e,
  0xd6, 0x8a, 0x94, 0x3c, 0xee, 0x38, 0x1a, 0x3e, 0x2a, 0xa6, 0xd4, 0xbd,
  0x20, 0x25, 0x1f, 0xbe, 0x1d, 0x0e, 0xee, 0xbc, 0x0e, 0xb7, 0x86, 0xbd,
  0xa3, 0xd2, 0x18, 0xbe, 0x00, 0xf6, 0x8d, 0x3e, 0x38, 0xb7, 0x45, 0xbe,
  0xb5, 0x64, 0xfa, 0xbd, 0xc5, 0x1b, 0x0d, 0xbf, 0x8c, 0x6c, 0x62, 0xbe,
  0xb2, 0x64, 0x13, 0xbf, 0xe3, 0xf7, 0x82, 0xbc, 0x94, 0xd3, 0x05, 0xbd,
  0xde, 0x94, 0x10, 0x3f, 0x21, 0x05, 0xc5, 0x3c, 0x18, 0xd5, 0xdb, 0x3b,
  0x83, 0x5a, 0xc9, 0xbd, 0x5f, 0x76, 0xa8, 0xbd, 0x1c, 0x5a, 0x2b, 0xbe,
  0x4f, 0xc2, 0x1f, 0xbe, 0x87, 0xd5, 0xac, 0xbe, 0x58, 0x84, 0x2b, 0x3e,
  0xd7, 0x2f, 0x66, 0xbe, 0x07, 0xe5, 0x10, 0xbe, 0x3a, 0xec, 0x95, 0xbe,
  0xe9, 0x88, 0x33, 0xbe, 0x60, 0x39, 0x5f, 0xbd, 0xcb, 0xf6, 0x79, 0x3d,
  0x2d, 0xf9, 0x0f, 0xbe, 0x24, 0x09, 0x89, 0xbd, 0x84, 0xb6, 0xdd, 0xbc,
  0x4b, 0xbe, 0xe9, 0xbd, 0x80, 0x43, 0x00, 0xbe, 0xf1, 0xa7, 0xbf, 0xbe,
  0xeb, 0xe1, 0x7c, 0x3e, 0xc4, 0xd3, 0x0f, 0x3e, 0x65, 0x97, 0x8b, 0x3c,
  0xde, 0x38, 0x27, 0x3e, 0x49, 0xa1, 0x44, 0xbd, 0x8f, 0xb7, 0x12, 0xbd,
  0xfd, 0xbc, 0x2b, 0xbe, 0x60, 0x3e, 0xc2, 0xbe, 0x92, 0x1e, 0x6a, 0xbe,
  0xc3, 0x69, 0x4a, 0xbe, 0x8c, 0xc0, 0x1b, 0xbe, 0x3b, 0xa5, 0xf2, 0xbd,
  0x09, 0x51, 0xbf, 0x3c, 0xf3, 0xb2, 0x78, 0x3e, 0x1b, 0xa5, 0x12, 0xbe,
  0x62, 0xe4, 0x20, 0xbe, 0x16, 0x22, 0x08, 0xbe, 0x48, 0x04, 0xc0, 0xbc,
  0x79, 0xd4, 0xfc, 0xbd, 0xca, 0x0f, 0x04, 0x3e, 0xc1, 0x53, 0xd4, 0x3d,
  0x86, 0x00, 0xab, 0x3d, 0x92, 0x72, 0x7c, 0xbe, 0x26, 0xea, 0xb2, 0xbe,
  0x7c, 0x26, 0x2f, 0x3d, 0x21, 0x43, 0xf6, 0xbe, 0x88, 0x5a, 0x92, 0x3d,
  0x8c, 0x42, 0x4e, 0xbd, 0x32, 0xe7, 0xb2, 0x3d, 0xa8, 0x85, 0xcd, 0xbc,
  0x69, 0x69, 0xde, 0xbc, 0x1b, 0x42, 0x92, 0x3d, 0xe9, 0x19, 0x85, 0x3d,
  0xa8, 0x35, 0x39, 0x3e, 0xb6, 0xf4, 0xbc, 0xbd, 0x05, 0xea, 0x13, 0xbe,
  0x5d, 0x13, 0x7b, 0x3e, 0xa7, 0x9c, 0x77, 0x3c, 0xf3, 0x42, 0x36, 0xbe,
  0xf5, 0x7d, 0x84, 0xbe, 0x74, 0x78, 0xcf, 0xbd, 0xd5, 0x43, 0x25, 0xbe,
  0xb4, 0x9e, 0x74, 0x3c, 0x44, 0x78, 0x0a, 0x3e, 0x77, 0xea, 0xe8, 0xbd,
  0xc6, 0xd5, 0x2c, 0x3e, 0x4d, 0x23, 0x0d, 0x3d, 0x94, 0x93, 0xdf, 0xbd,
  0xf3, 0x57, 0x26, 0xbe, 0x77, 0x7a, 0x38, 0x3e, 0xea, 0x94, 0xeb, 0x3d,
  0x03, 0xd2, 0x51, 0x3d, 0xfa, 0x00, 0x7b, 0x3d, 0x01, 0x8c, 0x1d, 0xbe,
  0x5a, 0x11, 0x6d, 0xbe, 0x1d, 0x88, 0x29, 0xbe, 0xb2, 0x42, 0x81, 0x3c,
  0xe2, 0x62, 0xd0, 0xbe, 0x5b, 0xb8, 0x1e, 0x3e, 0x6c, 0xbe, 0x3a, 0x3e,
  0x3f, 0xd4, 0x10, 0x3e, 0x0b, 0x25, 0x3b, 0x3e, 0xe4, 0xb9, 0x54, 0xbc,
  0xf8, 0x3d, 0x4c, 0x3d, 0xd2, 0x82, 0x41, 0x3e, 0xb0, 0xb2, 0x02, 0x3d,
  0x73, 0xcc, 0x04, 0xbd, 0xa6, 0x98, 0xbb, 0x3d, 0x7a, 0x59, 0xd8, 0xbb,
  0x2b, 0x2b, 0x5c, 0x3d, 0x14, 0x2f, 0x27, 0xbe, 0x08, 0xa2, 0xdf, 0xbd,
  0x58, 0x0d, 0x4c, 0xbe, 0x8f, 0x72, 0xfc, 0xbd, 0x7c, 0x83, 0xf5, 0xbd,
  0xdb, 0x4c, 0x0b, 0xbe, 0x2a, 0x22, 0x10, 0x3e, 0xe2, 0x4a, 0xde, 0xbd,
  0x5e, 0x7d, 0xb8, 0x3c, 0x4e, 0xc1, 0xbc, 0x3d, 0xcb, 0x22, 0x0e, 0xbe,
  0xfb, 0x91, 0x6f, 0x3e, 0x69, 0xf7, 0x3c, 0xbe, 0x67, 0xef, 0x17, 0x3c,
  0xa0, 0x25, 0xc7, 0x3d, 0x44, 0x89, 0x6c, 0x3d, 0xa2, 0xc1, 0x07, 0xbe,
  0x4f, 0x5a, 0xdf, 0xbd, 0xb8, 0xb6, 0x7d, 0xbe, 0x82, 0xd5, 0xce, 0xbd,
  0x15, 0xa9, 0x42, 0xbc, 0x28, 0xee, 0xa2, 0x3e, 0x45, 0x8f, 0xd8, 0x3d,
  0x32, 0x72, 0x16, 0x3e, 0xc5, 0xed, 0xa5, 0x3b, 0x98, 0xf7, 0x85, 0xbd,
  0x46, 0x60, 0xbf, 0xbc, 0x3b, 0xb2, 0xc1, 0xbd, 0x78, 0xc7, 0x0d, 0xbd,
  0xdb, 0xfa, 0x09, 0x3d, 0x27, 0x0d, 0xfb, 0xbc, 0x82, 0xc6, 0x4c, 0xbb,
  0x01, 0xc3, 0xff, 0xbd, 0xfb, 0x05, 0x8f, 0x3d, 0xaa, 0xf6, 0x75, 0xbe,
  0x03, 0xc6, 0x42, 0xbe, 0x4b, 0x99, 0x84, 0x3d, 0xf0, 0xa4, 0x9f, 0xbd,
  0xe5, 0x03, 0x47, 0xbd, 0xfd, 0xc1, 0x1f, 0xbe, 0x5e, 0x9a, 0x90, 0xbd,
  0xfb, 0xcb, 0x54, 0xbe, 0x4c, 0xb0, 0x20, 0x3e, 0x70, 0x37, 0x90, 0x3d,
  0x8d, 0x38, 0xc6, 0xbb, 0xa8, 0xe4, 0x5b, 0xbe, 0xea, 0x4d, 0x8a, 0xbc,
  0xac, 0x27, 0xb8, 0xbb, 0x55, 0xdf, 0x96, 0xbe, 0x51, 0xf1, 0xc5, 0x3e,
  0xff, 0x95, 0x3f, 0xbe, 0xf9, 0xc2, 0x94, 0xbe, 0xe8, 0x55, 0x72, 0xbc,
  0x4d, 0x8b, 0x22, 0xbe, 0x2f, 0xe5, 0x21, 0xbe, 0xf8, 0xe9, 0x9a, 0xbd,
  0x33, 0xdd, 0x84, 0xbe, 0x9a, 0xed, 0x5d, 0xbe, 0xb8, 0x56, 0x1e, 0x3f,
  0x0f, 0x5f, 0x9e, 0xbd, 0xe7, 0x0d, 0x35, 0xbe, 0xee, 0x60, 0x3a, 0xbe,
  0xb5, 0x98, 0xc2, 0x3d, 0x22, 0x44, 0x1b, 0x3e, 0xd5, 0x9a, 0x1e, 0xbe,
  0x49, 0xf6, 0x9d, 0x3d, 0xd0, 0xed, 0x51, 0xbd, 0x34, 0xbb, 0xb9, 0xbd,
  0x87, 0xf5, 0x92, 0xbc, 0x2f, 0xbe, 0xdd, 0x3c, 0xb8, 0x44, 0x81, 0xbe,
  0xef, 0x68, 0x9c, 0x3d, 0xe8, 0x65, 0x17, 0xbe, 0xf4, 0x48, 0x4b, 0x3e,
  0x74, 0xdc, 0x36, 0x3f, 0xb7, 0xb0, 0x5a, 0x3d, 0x9b, 0x10, 0xcf, 0xbd,
  0xbb, 0x3e, 0x24, 0x3d, 0x5b, 0x47, 0x4c, 0xbe, 0xb2, 0x38, 0xad, 0xbb,
  0x43, 0x15, 0xbf, 0xbe, 0x24, 0xeb, 0xc5, 0x3e, 0xb0, 0x22, 0x58, 0xbe,
  0x70, 0x3d, 0x80, 0xbe, 0x1d, 0x7c, 0x08, 0x3b, 0xe7, 0xdc, 0xaa, 0x3d,
  0x8d, 0x37, 0x86, 0xbe, 0x32, 0x1f, 0x83, 0x3d, 0x1c, 0xed, 0xd3, 0x3d,
  0x1e, 0x7c, 0xa3, 0xbd, 0x8b, 0x2c, 0x4d, 0x3f, 0x3b, 0x44, 0x9a, 0xbd,
  0x80, 0xa9, 0x43, 0xbd, 0x4a, 0xa0, 0x40, 0x3c, 0x34, 0x6f, 0xe3, 0x3d,
  0x7e, 0xaf, 0xfa, 0x3d, 0xd8, 0x2a, 0x44, 0xbe, 0x07, 0x8c, 0x0e, 0x3f,
  0x9d, 0xcf, 0xe3, 0x3c, 0xbc, 0xf8, 0x94, 0xbd, 0xdc, 0x58, 0x95, 0xbc,
  0xf4, 0x41, 0x5a, 0x3d, 0x10, 0x0b, 0x26, 0xbc, 0x47, 0x6e, 0xbf, 0x3d,
  0x9c, 0xc0, 0x19, 0xbd, 0x2b, 0x8b, 0xc2, 0xbd, 0xde, 0x1c, 0x41, 0x3f,
  0x73, 0x42, 0x0f, 0xbe, 0x5d, 0x07, 0x6f, 0xbd, 0xcb, 0xf0, 0x93, 0xbd,
  0x82, 0x39, 0xf4, 0x3d, 0xf5, 0x34, 0xd6, 0x3d, 0x50, 0x41, 0xd1, 0xbe,
  0x84, 0x42, 0x4d, 0x3e, 0xe1, 0xf1, 0x25, 0xbe, 0xbf, 0xe1, 0xc5, 0xbe,
  0xf0, 0x05, 0x13, 0x3d, 0x7d, 0x04, 0x47, 0xbe, 0x9b, 0x1c, 0x90, 0xbe,
  0xea, 0x81, 0x3d, 0x3e, 0xae, 0xd2, 0x5a, 0xbe, 0xa7, 0xba, 0x1e, 0xbe,
  0x10, 0xe4, 0x56, 0x3f, 0x2c, 0xb1, 0x40, 0x3e, 0x5d, 0x29, 0x3c, 0xbe,
  0x6c, 0x19, 0x33, 0xbc, 0x8c, 0xde, 0xa1, 0x3d, 0xbd, 0x28, 0x85, 0x3c,
  0xeb, 0xcd, 0x8e, 0xbe, 0x2c, 0x25, 0x63, 0x3e, 0xae, 0x63, 0x96, 0xbd,
  0xcb, 0x8d, 0x85, 0xbe, 0x65, 0xbe, 0xad, 0x3d, 0x1b, 0x7c, 0x6b, 0x3d,
  0x88, 0x56, 0xf6, 0xbd, 0xa0, 0x73, 0x9b, 0x3c, 0xdd, 0x9a, 0x85, 0xbe,
  0x20, 0x8d, 0x1b, 0x3e, 0x63, 0xd1, 0xd3, 0x3e, 0xe3, 0x21, 0x54, 0xbe,
  0x01, 0x73, 0x13, 0xbe, 0x3e, 0x69, 0xae, 0xbd, 0x38, 0x07, 0x26, 0xbe,
  0x3e, 0x67, 0x9b, 0x3d, 0x2d, 0xc1, 0x9e, 0xbe, 0x08, 0x76, 0x24, 0xbe,
  0xe6, 0xce, 0x83, 0xbd, 0x4a, 0xea, 0x97, 0xbe, 0xef, 0xae, 0x38, 0x3d,
  0xfa, 0xf4, 0x3a, 0xbe, 0xbe, 0xa1, 0xc4, 0xbd, 0xa4, 0x46, 0xaf, 0x3d,
  0x00, 0xbe, 0x89, 0xbd, 0x18, 0x85, 0x6a, 0xbe, 0x3a, 0xd7, 0x32, 0x3f,
  0x3a, 0x8c, 0x1b, 0xbe, 0x5e, 0xd3, 0x3f, 0xbd, 0x9d, 0xe9, 0x8b, 0xbe,
  0x39, 0xbb, 0x20, 0xbe, 0x3f, 0x51, 0x17, 0xbe, 0x8f, 0x55, 0xc6, 0xbe,
  0x70, 0x6a, 0x23, 0x3e, 0xdb, 0x95, 0x22, 0x3d, 0xa7, 0x63, 0x58, 0x3e,
  0xa7, 0x5a, 0x2a, 0xbe, 0x34, 0x0b, 0x57, 0xbd, 0xec, 0x9d, 0x91, 0xbd,
  0xb1, 0x46, 0xf8, 0xbe, 0x45, 0xfa, 0x69, 0xbf, 0xca, 0x09, 0x33, 0xbe,
  0x68, 0xec, 0xba, 0x3f, 0xcd, 0x3a, 0x23, 0xbe, 0x03, 0x53, 0xc1, 0xbe,
  0xc1, 0x69, 0xe1, 0xbe, 0xee, 0x79, 0x3b, 0x3e, 0xa0, 0xc4, 0x2f, 0x3d,
  0x24, 0x2e, 0xcf, 0xbe, 0xfe, 0xbe, 0x5b, 0x3e, 0xed, 0x30, 0x80, 0x3e,
  0x70, 0x83, 0x5a, 0xbd, 0x88, 0x5c, 0x1b, 0xbe, 0xa1, 0xd4, 0xed, 0xbe,
  0xd6, 0xb9, 0x7d, 0xbb, 0x02, 0x37, 0x8c, 0xbe, 0x70, 0xe0, 0x42, 0xbe,
  0x00, 0x1c, 0x48, 0x3e, 0xba, 0x36, 0x03, 0x40, 0x5f, 0x0f, 0xd1, 0xbe,
  0x30, 0xb0, 0xb1, 0xbe, 0x65, 0xb8, 0x7a, 0xbe, 0xe8, 0x73, 0xc3, 0x3e,
  0x33, 0x94, 0xca, 0x3d, 0x52, 0x75, 0x1f, 0xbf, 0x37, 0x2c, 0x04, 0x3f,
  0x75, 0x0d, 0x8c, 0x3e, 0xf1, 0x54, 0xd0, 0xbb, 0x6f, 0xb9, 0x32, 0xbe,
  0x64, 0x92, 0x80, 0xbe, 0x0a, 0xa4, 0x1a, 0x3d, 0xc9, 0xd1, 0x2f, 0xbe,
  0x06, 0x4d, 0xdf, 0xbd, 0xe9, 0x25, 0xa9, 0xbb, 0x8d, 0x6f, 0x94, 0x3f,
  0x79, 0xa7, 0x42, 0xbe, 0x0b, 0xc4, 0x0c, 0xbf, 0x41, 0xb8, 0xd1, 0xbd,
  0x5c, 0x1a, 0xab, 0x3e, 0xa5, 0x20, 0x57, 0xbe, 0x53, 0xfd, 0x94, 0xbe,
  0xd2, 0x98, 0x90, 0x3e, 0x36, 0x94, 0x8e, 0x3e, 0xbc, 0xfc, 0x94, 0x3d,
  0x7f, 0xa0, 0xf4, 0xbe, 0xbd, 0xd3, 0xca, 0xbb, 0xee, 0x21, 0xb2, 0x3b,
  0xc6, 0x39, 0xc7, 0x3d, 0xf4, 0x20, 0x12, 0xbe, 0x84, 0x9e, 0xca, 0xbd,
  0x8c, 0xfe, 0xfa, 0x3f, 0x7a, 0xdb, 0x5d, 0x3d, 0xfa, 0x70, 0x37, 0xbe,
  0x07, 0x2f, 0x81, 0xbe, 0x92, 0xc1, 0xc0, 0x3b, 0x86, 0x0f, 0x33, 0xbe,
  0x3e, 0x8c, 0x9f, 0xbe, 0x90, 0xc9, 0x1d, 0x3f, 0xd6, 0x18, 0xb4, 0x3d,
  0x58, 0x82, 0xc2, 0xbc, 0x66, 0xef, 0x2a, 0xbe, 0xed, 0x3a, 0xcb, 0x3b,
  0xcb, 0xb4, 0x23, 0x3d, 0xd1, 0xe5, 0x00, 0xbe, 0x08, 0x68, 0xa3, 0xbe,
  0xd2, 0xc8, 0xd7, 0xbe, 0xc1, 0xb0, 0xbe, 0x3f, 0xce, 0xa6, 0x8e, 0xbd,
  0x54, 0xfc, 0x18, 0xbe, 0xb5, 0x0b, 0x94, 0x3e, 0xce, 0x3a, 0x19, 0x3e,
  0xfd, 0x7c, 0x19, 0xbe, 0xa3, 0xae, 0xe1, 0xbe, 0x82, 0x9f, 0x32, 0x3f,
  0x1d, 0x10, 0x05, 0x3e, 0x30, 0x7c, 0x83, 0xbe, 0x23, 0x76, 0xba, 0xbe,
  0xbc, 0x82, 0x4b, 0xbe, 0x90, 0x0c, 0x40, 0x3d, 0x33, 0xe1, 0x5c, 0xbe,
  0x76, 0xf9, 0x66, 0xbe, 0xd1, 0x73, 0x53, 0xbd, 0x3a, 0x05, 0xae, 0x3f,
  0xb0, 0x65, 0x53, 0xbe, 0xe2, 0x0b, 0xa7, 0xbe, 0xdc, 0xdc, 0x68, 0x3e,
  0x22, 0x21, 0xa5, 0x3c, 0xa0, 0x40, 0x85, 0xbe, 0x40, 0xb0, 0x42, 0xbe,
  0x51, 0x4e, 0x65, 0xbe, 0x4a, 0xa2, 0x1e, 0x3e, 0x41, 0x14, 0x2a, 0xbc,
  0x85, 0x6f, 0x4d, 0xbe, 0x6d, 0xa4, 0xd4, 0xbe, 0x43, 0x2a, 0x95, 0xbd,
  0x15, 0xbe, 0x06, 0xbf, 0x59, 0xd7, 0xac, 0xbe, 0x37, 0x2b, 0x80, 0xbe,
  0x4c, 0xaf, 0x9f, 0x3f, 0x55, 0x65, 0x77, 0xbe, 0x25, 0xcd, 0xb1, 0xbe,
  0x64, 0x6c, 0x09, 0x3b, 0xeb, 0x7c, 0x92, 0xbe, 0x0f, 0x22, 0xcd, 0xbe,
  0x6f, 0xcf, 0x72, 0xbc, 0xd0, 0xb4, 0x83, 0x3e, 0x5c, 0x95, 0x01, 0x3d,
  0x5f, 0xb6, 0x12, 0x3d, 0x02, 0x4d, 0x71, 0xbe, 0xa4, 0x47, 0x09, 0xbe,
  0x81, 0xa4, 0x00, 0xbd, 0x98, 0xea, 0x07, 0xbe, 0x41, 0x7f, 0xbf, 0xbe,
  0x65, 0xee, 0x5e, 0xbe, 0x5a, 0x0f, 0xae, 0xbb, 0xc3, 0x66, 0xc9, 0xbe,
  0x98, 0x5d, 0x29, 0xbf, 0x08, 0xcf, 0x19, 0xbd, 0xed, 0xd8, 0xdf, 0x3d,
  0xd3, 0x87, 0x9a, 0xbd, 0x0c, 0x13, 0x4f, 0x3e, 0x1e, 0xd3, 0x33, 0x3d,
  0xc1, 0x1f, 0xc0, 0xbc, 0x64, 0x21, 0x87, 0x3d, 0xdc, 0x16, 0x10, 0xbe,
  0x54, 0x8d, 0xd7, 0xbc, 0xb5, 0x1d, 0x0e, 0x3c, 0x60, 0xaf, 0x09, 0xbe,
  0x41, 0xc8, 0xb0, 0xbd, 0x4e, 0xd1, 0x09, 0xbe, 0x32, 0x08, 0x0c, 0x3f,
  0x2e, 0xf8, 0x4b, 0xbe, 0xbc, 0xb9, 0x4c, 0xbf, 0xfe, 0xb8, 0x90, 0xbe,
  0x1d, 0x89, 0x8e, 0x3e, 0x50, 0x2f, 0xed, 0x3d, 0xdf, 0xbb, 0x1f, 0x3e,
  0x9b, 0xff, 0x06, 0x3d, 0x19, 0x19, 0xba, 0x3b, 0x4a, 0x08, 0x07, 0x3c,
  0xdf, 0xad, 0x3e, 0x3d, 0xad, 0xa0, 0x1f, 0xbf, 0x35, 0xec, 0x93, 0xbc,
  0x11, 0xe1, 0xcf, 0x3d, 0x03, 0xa3, 0x1f, 0x3d, 0x27, 0x7d, 0x55, 0xbe,
  0x6c, 0xb0, 0x6c, 0xbd, 0x38, 0xd1, 0xc7, 0xbe, 0xc1, 0x1c, 0x22, 0xbf,
  0xa3, 0x50, 0xa3, 0xbc, 0xb5, 0x60, 0xac, 0x3d, 0xeb, 0x82, 0x3e, 0x3e,
  0xd5, 0x72, 0x3c, 0x3e, 0xde, 0x1c, 0x49, 0x3e, 0x08, 0x0f, 0xd5, 0x3d,
  0x34, 0xb3, 0x8f, 0x3d, 0x8d, 0x73, 0x4a, 0xbe, 0x71, 0x0a, 0x4c, 0xbd,
  0x69, 0x19, 0x82, 0xbc, 0x88, 0xf4, 0x9c, 0x3e, 0xa9, 0x25, 0x8f, 0xbd,
  0x60, 0x86, 0x5d, 0xbd, 0xf4, 0xd0, 0x80, 0x3e, 0x3e, 0x5a, 0xde, 0xbd,
  0x38, 0xf2, 0xe2, 0xbe, 0xe8, 0xfc, 0xb4, 0x3e, 0xda, 0x92, 0x30, 0xbe,
  0x29, 0xc8, 0xdc, 0x3c, 0x33, 0x86, 0x2f, 0x3e, 0x92, 0xf5, 0x4d, 0x3e,
  0xbf, 0xda, 0x08, 0x3e, 0x1a, 0x82, 0x03, 0xbc, 0xbe, 0x9c, 0x1e, 0xbe,
  0x0a, 0x55, 0x8e, 0xbe, 0x6c, 0xdc, 0x0c, 0xbc, 0xac, 0xb9, 0xb4, 0xbe,
  0x1a, 0x07, 0x6f, 0xbe, 0xbd, 0x89, 0x09, 0x3d, 0x85, 0xeb, 0xa7, 0x3d,
  0xa1, 0x47, 0x1b, 0xbe, 0xec, 0xe0, 0x8f, 0xbe, 0x34, 0xc5, 0x70, 0x3e,
  0x07, 0xd7, 0xf8, 0xbd, 0x06, 0xbc, 0x17, 0xbe, 0x5a, 0xac, 0xfd, 0xbc,
  0xb7, 0x4b, 0x4c, 0x3e, 0xc9, 0x36, 0xb4, 0x3b, 0xf8, 0xc8, 0xb5, 0x3a,
  0x7f, 0x44, 0x3c, 0xbe, 0xb9, 0xd8, 0x00, 0x3e, 0x5e, 0x7b, 0x60, 0xbd,
  0x14, 0xca, 0xbb, 0xbd, 0xc0, 0xd9, 0xbc, 0xbe, 0x51, 0x63, 0x1b, 0xbc,
  0x07, 0xcb, 0xd3, 0x3d, 0x4a, 0xa6, 0xd2, 0xbe, 0x17, 0xf9, 0x04, 0xbf,
  0xcc, 0x9b, 0x9c, 0x3e, 0xc0, 0xf4, 0xf6, 0xbd, 0x02, 0x27, 0x56, 0xbe,
  0xf7, 0x75, 0x65, 0x3c, 0xed, 0x3a, 0x8d, 0x3d, 0xf3, 0xa7, 0x91, 0xbc,
  0x82, 0xac, 0x85, 0x3d, 0x0c, 0x78, 0x9b, 0xbe, 0x0b, 0x8a, 0x28, 0x3e,
  0x87, 0xa9, 0x9e, 0xbd, 0x9a, 0x78, 0x5a, 0xbe, 0x8c, 0x98, 0xa7, 0xbe,
  0x29, 0x45, 0x83, 0xbc, 0xbc, 0xf9, 0x24, 0x3f, 0x8d, 0x63, 0x50, 0xbe,
  0x84, 0x56, 0xb2, 0x3d, 0xe9, 0x86, 0x08, 0x3e, 0xad, 0x3f, 0x35, 0xbe,
  0x1b, 0xf2, 0xdb, 0xbd, 0xf4, 0x88, 0x40, 0xbe, 0x83, 0x7e, 0xa9, 0xbd,
  0xc7, 0x8c, 0x62, 0x3b, 0xe1, 0x9a, 0x80, 0xbe, 0x5d, 0xa7, 0xb8, 0xbc,
  0x18, 0xee, 0xa0, 0xbd, 0x28, 0x02, 0x70, 0xbe, 0x64, 0xc9, 0x82, 0xbb,
  0x78, 0xed, 0xba, 0xbd, 0x77, 0x07, 0x70, 0x3a, 0x21, 0x8b, 0x35, 0x3e,
  0xfa, 0xb9, 0x1f, 0xbe, 0xad, 0x04, 0x52, 0xbb, 0x61, 0x71, 0x5f, 0xbe,
  0x80, 0xa3, 0x17, 0x3e, 0x5e, 0xcc, 0x23, 0xbe, 0x88, 0x4e, 0x9b, 0xbd,
  0x61, 0x35, 0xfd, 0xbb, 0x92, 0x90, 0x85, 0xbd, 0x42, 0x6d, 0x80, 0xbe,
  0x2b, 0xa1, 0x4a, 0xbe, 0x15, 0x02, 0x05, 0xbd, 0x41, 0x1c, 0xfb, 0xbb,
  0xca, 0x3b, 0x3b, 0xbe, 0xcf, 0xf8, 0xee, 0xbd, 0xe4, 0x74, 0xcf, 0xbd,
  0xc5, 0xdd, 0x8b, 0xba, 0x48, 0x0e, 0x81, 0x3d, 0x6b, 0xc8, 0x80, 0xbc,
  0x89, 0xf2, 0xd3, 0x3c, 0x84, 0xc5, 0x20, 0x3e, 0xe4, 0x8a, 0xac, 0x3d,
  0xfb, 0x32, 0x94, 0xbe, 0x0d, 0x7e, 0x43, 0xbd, 0xb6, 0x0f, 0xe7, 0xbd,
  0x29, 0x40, 0xe1, 0xbd, 0x97, 0x4b, 0xdb, 0xbd, 0x13, 0x9c, 0xc2, 0xbd,
  0xe3, 0x6f, 0x8f, 0x3d, 0xa3, 0xb5, 0x21, 0x3e, 0x5b, 0x66, 0x58, 0x3e,
  0x75, 0x22, 0x0b, 0xbe, 0xbf, 0x01, 0x1a, 0xbe, 0x8b, 0xbf, 0xf2, 0x3d,
  0xa2, 0xa1, 0x4d, 0x3d, 0xa0, 0x8f, 0xdd, 0xbc, 0x48, 0x89, 0x12, 0x3e,
  0x8f, 0x6d, 0x64, 0x3b, 0x3c, 0xef, 0x8e, 0xbd, 0x55, 0xf9, 0x15, 0xbe,
  0x5d, 0xcc, 0x3d, 0x3d, 0x45, 0xcf, 0xb2, 0xbe, 0x66, 0xa2, 0x35, 0xbe,
  0x99, 0x88, 0x00, 0x3e, 0x9a, 0x66, 0x23, 0x3c, 0x46, 0x3c, 0x60, 0xbe,
  0x05, 0xb4, 0x69, 0xbd, 0xc0, 0x2d, 0xf4, 0x3d, 0x0d, 0x7b, 0x64, 0xbe,
  0xc6, 0xf1, 0x00, 0xbe, 0xb3, 0x82, 0xb6, 0x3d, 0xfd, 0x5a, 0x94, 0xbd,
  0x92, 0x01, 0x8b, 0x3d, 0x1b, 0x43, 0x34, 0xbe, 0xc5, 0xe4, 0xa1, 0xbe,
  0x74, 0x11, 0x48, 0x3c, 0x5c, 0x28, 0xcb, 0xbd, 0x7b, 0xd2, 0x12, 0xbe,
  0x69, 0xbc, 0x7d, 0x3c, 0xa4, 0x11, 0x8b, 0x3d, 0x27, 0xa8, 0x2e, 0xbe,
  0xfd, 0xcf, 0x1d, 0x3e, 0x08, 0x09, 0x75, 0xbe, 0xa5, 0xed, 0x10, 0x3e,
  0x52, 0x64, 0x21, 0x3e, 0x82, 0xd0, 0x1d, 0xbe, 0x6f, 0x29, 0xea, 0x3c,
  0xc9, 0xcd, 0x9c, 0xbe, 0x14, 0x15, 0xd0, 0xbd, 0xa0, 0xe0, 0xb8, 0xbd,
  0xdd, 0x25, 0x55, 0xbe, 0x40, 0x44, 0x13, 0xbe, 0x52, 0x42, 0x8e, 0x3d,
  0xbb, 0x61, 0x95, 0xbd, 0xd5, 0xe8, 0x83, 0x3c, 0x41, 0x3e, 0xd9, 0xbc,
  0x34, 0xd1, 0x4e, 0xbe, 0xd4, 0xc9, 0xcb, 0xbd, 0xe3, 0x21, 0x4d, 0xbc,
  0x28, 0x81, 0x9e, 0x3d, 0x9f, 0x52, 0x9f, 0x3c, 0x28, 0x60, 0x06, 0x3d,
  0x1b, 0x53, 0x84, 0x3d, 0x1f, 0x81, 0x5f, 0x3d, 0x22, 0x46, 0x7c, 0xbe,
  0x9e, 0xd6, 0x74, 0xbd, 0x7f, 0x10, 0xea, 0xbd, 0x2f, 0x66, 0x5e, 0xbe,
  0xc7, 0xf5, 0x89, 0x3d, 0xa6, 0x3c, 0x46, 0xbe, 0x64, 0x8a, 0x72, 0xbc,
  0x38, 0x09, 0xc8, 0x3d, 0x70, 0xa0, 0xcf, 0xbd, 0x07, 0x30, 0xac, 0xbd,
  0xf4, 0x43, 0xe2, 0x3c, 0x16, 0xb4, 0x76, 0xbc, 0xe1, 0x29, 0x15, 0xbe,
  0x97, 0x67, 0x0a, 0xbe, 0x98, 0xb7, 0x3f, 0xbe, 0x20, 0x81, 0x0e, 0xbe,
  0x61, 0x9f, 0xe4, 0xbc, 0xfc, 0x90, 0x27, 0x3d, 0x6e, 0x03, 0x31, 0xbd,
  0x0e, 0xa3, 0x17, 0x3e, 0x1a, 0x4b, 0x55, 0x3d, 0x1d, 0xae, 0xb0, 0x3d,
  0x17, 0xbc, 0x67, 0xbc, 0xc2, 0x2e, 0x65, 0xbe, 0x9d, 0xc8, 0x56, 0x3c,
  0x6c, 0x1a, 0x70, 0x3d, 0x18, 0xa4, 0x4a, 0xbe, 0xa2, 0x21, 0x0d, 0xbf,
  0x93, 0x97, 0x90, 0x3f, 0x5c, 0x2f, 0xe6, 0x3d, 0x5b, 0xc5, 0x98, 0xbd,
  0x0f, 0x55, 0x23, 0xbf, 0xfa, 0x7b, 0x31, 0x3e, 0x8e, 0xd9, 0x9b, 0xbe,
  0x7f, 0x97, 0xba, 0xbe, 0xb4, 0x23, 0xa3, 0x3e, 0x47, 0x7c, 0x45, 0xbe,
  0x86, 0x5b, 0xfc, 0x3b, 0x0b, 0xe4, 0x6e, 0xbe, 0xdb, 0x85, 0xe4, 0xbe,
  0x15, 0x44, 0xf3, 0xbb, 0x5a, 0x96, 0x28, 0xbe, 0xd7, 0x66, 0xfd, 0x3b,
  0x9c, 0xc8, 0x02, 0xbe, 0x87, 0x94, 0x6e, 0x3f, 0x32, 0x2c, 0xfd, 0x3c,
  0x72, 0x80, 0xf8, 0xbe, 0x2a, 0x09, 0x09, 0xbf, 0x45, 0x89, 0x31, 0x3e,
  0xe6, 0x31, 0x2c, 0xbe, 0x5e, 0xe7, 0xb7, 0xbe, 0x5f, 0x9d, 0x40, 0x3e,
  0xd9, 0xc3, 0xe2, 0x3a, 0x59, 0x26, 0xfc, 0xbc, 0xf6, 0x1e, 0x8b, 0xbe,
  0x02, 0x97, 0x97, 0xbe, 0xbe, 0x1f, 0xc8, 0x3a, 0xd5, 0x31, 0x32, 0xbe,
  0xa0, 0x98, 0xce, 0x3d, 0xf1, 0x1d, 0xab, 0xbe, 0x46, 0x43, 0x83, 0x3f,
  0x08, 0xa3, 0x04, 0xbf, 0x3b, 0xbb, 0x15, 0xbf, 0x13, 0xa7, 0x1b, 0xbf,
  0x5b, 0x88, 0x81, 0x3d, 0xc8, 0xbb, 0xbf, 0xbe, 0x70, 0xc1, 0xc9, 0xbe,
  0xa6, 0xce, 0xee, 0x3d, 0x30, 0xd7, 0xaf, 0x3d, 0x2a, 0x72, 0x80, 0xbd,
  0x59, 0x39, 0xf2, 0xbd, 0x29, 0xc0, 0x30, 0xbd, 0xfa, 0xda, 0x7b, 0xbc,
  0x97, 0xa5, 0x7e, 0xbe, 0x22, 0x52, 0x4d, 0xbe, 0x8c, 0xe7, 0xdf, 0xbd,
  0xf2, 0x3b, 0x8a, 0x3f, 0x1a, 0x66, 0xe1, 0xbb, 0xd2, 0xed, 0xb4, 0xbe,
  0x9b, 0x36, 0x90, 0xbe, 0x1a, 0x36, 0xe6, 0x3d, 0xcc, 0xf1, 0xeb, 0x3d,
  0xb7, 0x4b, 0x8a, 0xbe, 0xac, 0xce, 0x93, 0x3e, 0x97, 0x56, 0x1d, 0x3e,
  0xfa, 0xa0, 0x46, 0xbc, 0xa6, 0xd2, 0xbb, 0xbc, 0xb8, 0xad, 0x2e, 0xbe,
  0xba, 0x0f, 0x37, 0xbc, 0x3a, 0x39, 0xc5, 0x3d, 0x40, 0xe5, 0xc6, 0x3c,
  0x5b, 0xce, 0x9e, 0xbe, 0x88, 0x0d, 0x6c, 0x3f, 0x93, 0x2d, 0x5e, 0xbe,
  0xcc, 0x3e, 0x29, 0xbe, 0x8c, 0x2d, 0x5c, 0x3d, 0xdb, 0x45, 0xe8, 0x3d,
  0x37, 0x20, 0x93, 0x3d, 0xb3, 0xc7, 0x91, 0xbd, 0x33, 0x05, 0x38, 0x3e,
  0xf3, 0x0f, 0x7e, 0x3d, 0x99, 0x25, 0xc7, 0x3c, 0x23, 0xf5, 0x43, 0x3d,
  0x45, 0x43, 0xc1, 0xbe, 0x6f, 0xcf, 0x8b, 0xbc, 0x23, 0x7d, 0xfb, 0x3b,
  0xdb, 0xa4, 0x89, 0x38, 0xfc, 0xcf, 0x87, 0xbe, 0xf9, 0xfb, 0x58, 0x3f,
  0x77, 0x65, 0x1f, 0xbb, 0xc9, 0x9a, 0x27, 0xbe, 0x69, 0xcb, 0x93, 0x3d,
  0xe8, 0xf4, 0xb7, 0x3d, 0x56, 0x72, 0x32, 0x3d, 0xaa, 0xd0, 0x86, 0xbd,
  0xc6, 0xd8, 0xe9, 0x3d, 0xdb, 0x42, 0xcd, 0x3d, 0x85, 0x2f, 0x78, 0xbc,
  0x99, 0xf4, 0x60, 0x3c, 0x0f, 0xfa, 0x85, 0xbe, 0xfe, 0x4f, 0xf2, 0x3c,
  0xc7, 0x91, 0x13, 0x3e, 0xdb, 0xc5, 0x9a, 0x3c, 0xc7, 0x9f, 0xc3, 0x3d,
  0x50, 0x7a, 0x12, 0x3f, 0xf8, 0x1d, 0xfa, 0x3c, 0xb4, 0xbe, 0x7b, 0xbe,
  0x0e, 0xf9, 0x87, 0x3d, 0x4f, 0xb8, 0x89, 0xbd, 0x10, 0x1e, 0x6f, 0xbb,
  0xc8, 0xff, 0x41, 0xbd, 0xd4, 0x8e, 0x4b, 0x3e, 0x0a, 0xfe, 0xa8, 0xbe,
  0x02, 0x95, 0x24, 0xbe, 0xd3, 0x43, 0x15, 0x3e, 0x14, 0x94, 0x3d, 0xbe,
  0x42, 0x1b, 0x46, 0xbf, 0x9f, 0xec, 0xa0, 0xbe, 0x7c, 0xeb, 0x18, 0x3f,
  0xe2, 0x38, 0x2d, 0x3d, 0x20, 0x51, 0x0d, 0x3f, 0x99, 0x73, 0x1e, 0x3e,
  0x0c, 0x78, 0x8c, 0x3d, 0x5b, 0xb0, 0x52, 0x3e, 0xce, 0xa9, 0xa9, 0xbd,
  0xba, 0x2d, 0x6b, 0x3e, 0x15, 0x19, 0xd9, 0x3c, 0xb7, 0x07, 0xb9, 0xbe,
  0x8b, 0xa9, 0x54, 0x3d, 0x48, 0xe9, 0x13, 0xbe, 0x58, 0x72, 0xf6, 0x3e,
  0xb9, 0xa2, 0x94, 0x3d, 0x98, 0xad, 0xfa, 0xbd, 0x08, 0x71, 0x06, 0x3c,
  0x55, 0x53, 0xd1, 0x3e, 0x2a, 0x19, 0x7a, 0x3e, 0xf9, 0x2a, 0xb1, 0x3e,
  0xb8, 0x71, 0x6b, 0x3e, 0x92, 0xb2, 0xea, 0x3a, 0x6d, 0x1a, 0x01, 0xbe,
  0x06, 0x77, 0x85, 0xbd, 0x2d, 0x82, 0x6c, 0x3d, 0x86, 0x11, 0xa8, 0x3b,
  0x74, 0xf1, 0x27, 0x3e, 0xda, 0xde, 0x8d, 0x3e, 0x97, 0x08, 0xe4, 0x3b,
  0x94, 0xe4, 0x05, 0x3f, 0x56, 0x33, 0x13, 0x3e, 0x11, 0x81, 0x74, 0xbe,
  0xa8, 0x94, 0xc7, 0xbe, 0x68, 0x80, 0x34, 0xbb, 0xb6, 0xf1, 0xc3, 0x3d,
  0x95, 0x40, 0xef, 0x3e, 0x93, 0xbe, 0xa0, 0x3e, 0x43, 0x64, 0x31, 0xbd,
  0x02, 0x0f, 0x38, 0xbe, 0xc3, 0x4f, 0x34, 0x3e, 0xa2, 0x40, 0x19, 0xbe,
  0x89, 0x83, 0xfb, 0xbd, 0x06, 0x43, 0xe4, 0x3e, 0x50, 0x6b, 0x3a, 0x3e,
  0x89, 0x0d, 0xb7, 0xbd, 0x20, 0xb0, 0xdc, 0x3e, 0xda, 0x03, 0x83, 0x3d,
  0x6f, 0xcf, 0x88, 0xbe, 0x95, 0x95, 0x00, 0xbf, 0x4c, 0xd6, 0x92, 0x3d,
  0x56, 0x67, 0x9b, 0xbd, 0x0d, 0x1e, 0x38, 0x3f, 0x9e, 0x07, 0x7f, 0x3e,
  0x83, 0xdc, 0x17, 0xbd, 0xff, 0x17, 0x1d, 0xbe, 0xef, 0xfd, 0x3c, 0xbe,
  0xaf, 0xba, 0x13, 0xbe, 0xd8, 0x7d, 0xed, 0xbd, 0xc0, 0xe6, 0x4f, 0x3e,
  0xee, 0x0e, 0x6c, 0x3e, 0xad, 0x93, 0xbf, 0x3d, 0x14, 0x0f, 0x05, 0x3f,
  0x88, 0xfb, 0x68, 0xbd, 0x02, 0xf2, 0xd2, 0xbe, 0x09, 0xca, 0x50, 0xbe,
  0x8c, 0xe1, 0x4c, 0x3e, 0x90, 0x64, 0xa2, 0xbd, 0x02, 0xa8, 0xe4, 0x3e,
  0x69, 0x44, 0x56, 0x3e, 0x66, 0xc2, 0xf3, 0x3d, 0xe5, 0xa2, 0xdc, 0xbd,
  0x17, 0xab, 0x86, 0xbe, 0x40, 0x14, 0x27, 0xbe, 0x5d, 0xa2, 0xf1, 0xbc,
  0xf8, 0xab, 0xa3, 0x3e, 0x0a, 0x40, 0x90, 0xbc, 0x48, 0xdc, 0x6c, 0x3c,
  0x02, 0xc8, 0x86, 0x3e, 0x8d, 0x4a, 0x65, 0x3e, 0xa3, 0x5f, 0x99, 0xbe,
  0x83, 0xc8, 0x8a, 0xbe, 0xb1, 0x77, 0x57, 0x3e, 0x0a, 0xb8, 0x22, 0x3e,
  0x15, 0xe9, 0x37, 0x3f, 0x5a, 0x43, 0xce, 0xbd, 0x3b, 0xd7, 0x44, 0x3e,
  0x6b, 0x92, 0xab, 0xbd, 0x00, 0xcf, 0xcf, 0xbd, 0x30, 0x2c, 0xc9, 0x3c,
  0x89, 0x90, 0x8e, 0x3d, 0x5d, 0xe4, 0x6a, 0xbe, 0x4e, 0xc1, 0xda, 0xbc,
  0x7b, 0x21, 0x8d, 0xbd, 0x10, 0x6d, 0x94, 0x3e, 0x2e, 0xb4, 0x17, 0x3d,
  0xb9, 0xdd, 0xd7, 0x3d, 0x91, 0x41, 0x1d, 0x3e, 0x34, 0x06, 0xab, 0x3d,
  0xef, 0x80, 0xac, 0x3d, 0xde, 0x3c, 0x05, 0x3f, 0x59, 0xda, 0xc9, 0xbd,
  0xec, 0x79, 0xd8, 0x3d, 0x5c, 0x2f, 0xca, 0x3d, 0xb3, 0x0d, 0x5a, 0xbe,
  0x7d, 0x2f, 0xf8, 0xbe, 0x57, 0x5d, 0xfd, 0xbe, 0x95, 0xee, 0xdd, 0x3e,
  0xc7, 0x0d, 0xfd, 0x3d, 0xa5, 0x3d, 0xff, 0x3b, 0x79, 0xed, 0x12, 0xbe,
  0x67, 0x64, 0xd6, 0x3c, 0x66, 0x55, 0x43, 0xbd, 0xcd, 0x93, 0x33, 0xbe,
  0x05, 0x98, 0x31, 0xbf, 0x90, 0xfa, 0x3b, 0xbe, 0xed, 0xdd, 0xd3, 0x3f,
  0xfa, 0xb4, 0xa4, 0xbe, 0xa8, 0x77, 0x0b, 0xbf, 0x74, 0x7a, 0x17, 0xbf,
  0xba, 0x36, 0x19, 0x3e, 0x74, 0xc2, 0x22, 0x3e, 0xb3, 0xea, 0xc6, 0xbe,
  0x30, 0x5d, 0xb7, 0x3e, 0xdb, 0xa5, 0x4e, 0x3e, 0x2b, 0x0d, 0x39, 0xbb,
  0x61, 0x50, 0x32, 0xbe, 0xbb, 0x6d, 0x8f, 0xbd, 0x12, 0x21, 0xa1, 0xbe,
  0xa2, 0x73, 0x5c, 0x3d, 0x07, 0x77, 0x6d, 0xbe, 0x8c, 0xbe, 0x6e, 0xbe,
  0xec, 0x14, 0xa4, 0x3f, 0x7b, 0xc8, 0x37, 0xbe, 0x67, 0xcb, 0xc9, 0xbe,
  0xea, 0x25, 0xe5, 0xbe, 0xb1, 0x70, 0x8f, 0x3e, 0x0d, 0x6e, 0x14, 0x3e,
  0x1d, 0xf9, 0x55, 0xbe, 0x1d, 0x79, 0x05, 0x3f, 0x3f, 0xb9, 0x2b, 0x3e,
  0xfc, 0x7a, 0x48, 0x3d, 0x6c, 0xbe, 0xd9, 0xbd, 0x17, 0x64, 0xcb, 0xbd,
  0xe2, 0xd3, 0xb9, 0x3c, 0xea, 0x27, 0x2e, 0xbc, 0x1c, 0x1d, 0xc3, 0x3d,
  0x15, 0xf4, 0x46, 0xbe, 0x12, 0x21, 0xc9, 0x3f, 0x16, 0x8a, 0xe7, 0xbd,
  0x10, 0xc2, 0x89, 0xbe, 0xfc, 0x6c, 0x03, 0xbf, 0x04, 0x84, 0x8c, 0x3d,
  0xfd, 0x4b, 0x46, 0x3e, 0xb7, 0x97, 0xaa, 0xbe, 0xf6, 0x34, 0x2d, 0x3e,
  0x0c, 0x0e, 0x04, 0x3e, 0x3f, 0xf2, 0x8f, 0x3d, 0xc8, 0x65, 0x7a, 0xbe,
  0xae, 0x2a, 0xa1, 0x3b, 0xbb, 0x61, 0x88, 0x3c, 0xe9, 0x84, 0x61, 0x3d,
  0x8c, 0x27, 0x08, 0xbe, 0xd5, 0xe1, 0xa6, 0x3c, 0x95, 0x49, 0xd3, 0x3f,
  0x02, 0xd0, 0x98, 0xbd, 0x05, 0xc8, 0x2b, 0xbd, 0xf7, 0x98, 0x14, 0x3d,
  0x65, 0x09, 0x83, 0xbd, 0x0e, 0x5b, 0xa6, 0xbe, 0x31, 0xce, 0xb2, 0xbe,
  0x96, 0x55, 0xef, 0x3e, 0x2a, 0x89, 0x82, 0x3e, 0x1e, 0x14, 0x89, 0x3a,
  0xc7, 0xe5, 0x7f, 0xbe, 0x1d, 0x09, 0x5a, 0xbe, 0x94, 0x71, 0x83, 0xbd,
  0x90, 0xb3, 0x38, 0xbe, 0xa3, 0x71, 0xa1, 0xbe, 0x58, 0x04, 0x0e, 0xbe,
  0x69, 0x31, 0xad, 0x3f, 0x80, 0x07, 0x5b, 0x3d, 0xdf, 0xd2, 0xf5, 0xbd,
  0x40, 0xd7, 0x85, 0x3d, 0x9a, 0x06, 0xbb, 0xbd, 0x58, 0x4d, 0x59, 0xbe,
  0xae, 0x27, 0xd7, 0xbe, 0x87, 0x09, 0x16, 0x3f, 0x6b, 0xe8, 0x54, 0x3e,
  0x38, 0x68, 0xa9, 0x3d, 0x1c, 0x2e, 0x86, 0xbe, 0xad, 0xbf, 0x0c, 0xbe,
  0x45, 0xb2, 0xce, 0xbd, 0x05, 0x92, 0x06, 0xbd, 0xad, 0xf5, 0xec, 0xbe,
  0x5d, 0x97, 0xf0, 0xbd, 0x0a, 0x08, 0xdb, 0x3f, 0x29, 0x71, 0xc5, 0xbe,
  0x6c, 0xac, 0x3f, 0xbe, 0x25, 0xaa, 0xd0, 0x3d, 0x8b, 0xda, 0x87, 0x3d,
  0x95, 0xe3, 0x90, 0xbd, 0x90, 0x3e, 0x0c, 0xbe, 0xa3, 0xfc, 0x22, 0x3e,
  0xb5, 0x9a, 0x5b, 0x3d, 0xa6, 0x93, 0x10, 0x3a, 0x4b, 0x4a, 0x8f, 0xbd,
  0xbd, 0x5d, 0xe4, 0xbe, 0x70, 0xd4, 0x25, 0xbe, 0x0f, 0xfe, 0x79, 0xbe,
  0xf4, 0x8e, 0xd1, 0xbe, 0x2d, 0x36, 0x5f, 0x3c, 0xab, 0x23, 0xc2, 0x3f,
  0x54, 0x5e, 0x1d, 0xbe, 0xfa, 0xdb, 0x9b, 0xbe, 0x4b, 0x88, 0x6c, 0xbc,
  0x89, 0x6a, 0x62, 0x3b, 0xb5, 0x88, 0xe1, 0x3c, 0x70, 0x7b, 0xda, 0xbc,
  0x97, 0xab, 0xc2, 0xbc, 0xad, 0x8b, 0x37, 0x3d, 0x1a, 0x3e, 0x91, 0xbd,
  0x63, 0xab, 0x92, 0x3d, 0xe0, 0x76, 0x03, 0xbe, 0x8e, 0x4e, 0x9b, 0xbc,
  0x82, 0x94, 0x8f, 0x3e, 0xea, 0xeb, 0xb4, 0x3e, 0x23, 0x7c, 0x83, 0xbe,
  0x38, 0x36, 0x37, 0xbe, 0xf4, 0x01, 0xe7, 0x3d, 0x10, 0x7c, 0x29, 0x3c,
  0x9b, 0x64, 0xbf, 0x3d, 0x4b, 0x4d, 0x1b, 0x3e, 0x1b, 0xf1, 0xd9, 0x3d,
  0x01, 0xbd, 0x00, 0xbd, 0xcc, 0x61, 0xf7, 0x3d, 0xd3, 0x45, 0x0c, 0xbe,
  0x2d, 0x2d, 0xe1, 0x3c, 0xbb, 0x2d, 0xe1, 0x3d, 0xec, 0x9d, 0x02, 0xbe,
  0x4c, 0x6d, 0x8f, 0x3b, 0x40, 0xc2, 0x21, 0xbe, 0xf4, 0xcb, 0xf3, 0xbd,
  0xea, 0xd6, 0x3e, 0xbe, 0xaa, 0x19, 0x2e, 0x3d, 0xaf, 0x57, 0x45, 0x3e,
  0x71, 0xce, 0x65, 0xbe, 0x95, 0x4e, 0xaa, 0x3c, 0x42, 0x70, 0x8a, 0xbe,
  0x2d, 0xec, 0x2a, 0x3e, 0xd2, 0x20, 0xaf, 0xbe, 0xb9, 0xe1, 0xfa, 0x3d,
  0xeb, 0x28, 0xda, 0xbe, 0xb8, 0xce, 0x75, 0xbe, 0x8e, 0x51, 0x83, 0xbe,
  0x45, 0xff, 0xe1, 0x3d, 0xa9, 0x65, 0xed, 0xbe, 0x7d, 0x49, 0xd1, 0xbd,
  0x21, 0xcb, 0x4a, 0xbe, 0x10, 0x6f, 0x38, 0xbe, 0xf7, 0xb6, 0xf7, 0xbd,
  0xa5, 0x3e, 0x7a, 0xbe, 0x83, 0xc1, 0x83, 0xbe, 0x1f, 0x4b, 0xb5, 0x3d,
  0xad, 0x05, 0x6e, 0x3c, 0x0b, 0xdb, 0x49, 0x3e, 0xf8, 0xa7, 0xb0, 0xbe,
  0x3b, 0xbc, 0xcf, 0xbe, 0x53, 0xb0, 0xe6, 0xbe, 0x75, 0x0f, 0x30, 0xbe,
  0xd4, 0x8f, 0xd2, 0xbe, 0xc6, 0x3e, 0x86, 0xbd, 0xc3, 0x05, 0xca, 0xbe,
  0xd9, 0x3d, 0x3f, 0xbe, 0xd3, 0x4c, 0x85, 0xbd, 0xeb, 0x3f, 0xd8, 0xbd,
  0x25, 0xda, 0x52, 0x3d, 0x89, 0x9e, 0xab, 0xbd, 0x47, 0x78, 0x1f, 0x3d,
  0x2d, 0x40, 0xd9, 0xbd, 0x73, 0x40, 0x3b, 0xbe, 0x88, 0xe6, 0x56, 0xbe,
  0x7b, 0x23, 0x95, 0xbe, 0x21, 0xd5, 0xf4, 0xbe, 0x80, 0x1a, 0xbb, 0xbe,
  0xc1, 0x23, 0xa8, 0xbd, 0x48, 0xc6, 0x6b, 0xbe, 0xff, 0x67, 0xcd, 0x3d,
  0x95, 0xb1, 0xb1, 0xbe, 0x35, 0xd1, 0x90, 0xbd, 0xdc, 0x32, 0xd2, 0x3c,
  0x68, 0x1e, 0x2d, 0xbd, 0xdc, 0xfc, 0x1b, 0x3e, 0x1f, 0x49, 0x35, 0xbd,
  0xb1, 0xe2, 0x8d, 0x3d, 0xd2, 0x41, 0x8f, 0xbc, 0x29, 0x2a, 0x1f, 0x3c,
  0xd7, 0x3d, 0x07, 0x3d, 0x8d, 0x68, 0xab, 0xbe, 0xdd, 0x2e, 0x67, 0xbc,
  0xa0, 0xdd, 0x09, 0xbe, 0x07, 0xef, 0x8a, 0xbd, 0x88, 0xfe, 0xa7, 0xbe,
  0x7e, 0xff, 0x4a, 0x3e, 0xd3, 0x9e, 0x75, 0xbe, 0x91, 0x82, 0x66, 0xbe,
  0x36, 0x2e, 0xec, 0xbd, 0x14, 0x41, 0x15, 0xbe, 0x9f, 0xef, 0x8d, 0x3d,
  0xce, 0xf9, 0x46, 0xbd, 0xf3, 0x5e, 0x27, 0xbd, 0xea, 0x1c, 0xb2, 0xbe,
  0xf8, 0x2d, 0x11, 0xbe, 0x25, 0x52, 0x03, 0xbc, 0xd1, 0x1c, 0x3a, 0xbe,
  0x1b, 0xbe, 0x5f, 0xbe, 0x09, 0x7b, 0x1f, 0xbe, 0x45, 0xc0, 0x7b, 0xbd,
  0x90, 0xcc, 0x0d, 0xbe, 0x6f, 0xcc, 0xbb, 0xbd, 0xcd, 0x85, 0xba, 0xbe,
  0xa2, 0x36, 0x11, 0xbe, 0x3f, 0x31, 0x18, 0xbe, 0xa8, 0x21, 0x95, 0xbd,
  0x9f, 0x3c, 0x50, 0x3d, 0x15, 0x17, 0x8e, 0xbe, 0x59, 0x1d, 0x16, 0xbe,
  0x70, 0x09, 0x8b, 0xbe, 0x62, 0xfd, 0xff, 0xff, 0x10, 0x00, 0x00, 0x00,
  0x07, 0x00, 0x00, 0x00, 0x14, 0x00, 0x00, 0x00, 0x2c, 0x00, 0x00, 0x00,
  0x02, 0x00, 0x00, 0x00, 0x10, 0x00, 0x00, 0x00, 0x70, 0x00, 0x00, 0x00,
  0x17, 0x00, 0x00, 0x00, 0x73, 0x65, 0x71, 0x75, 0x65, 0x6e, 0x74, 0x69,
  0x61, 0x6c, 0x2f, 0x64, 0x65, 0x6e, 0x73, 0x65, 0x2f, 0x4d, 0x61, 0x74,
  0x4d, 0x75, 0x6c, 0x00, 0xcc, 0xfc, 0xff, 0xff, 0xd6, 0xfd, 0xff, 0xff,
  0x04, 0x00, 0x00, 0x00, 0x08, 0x00, 0x00, 0x00, 0xff, 0xff, 0xff, 0xff,
  0x70, 0x00, 0x00, 0x00, 0x00, 0x00, 0x0e, 0x00, 0x18, 0x00, 0x08, 0x00,
  0x07, 0x00, 0x0c, 0x00, 0x10, 0x00, 0x14, 0x00, 0x0e, 0x00, 0x00, 0x00,
  0x00, 0x00, 0x00, 0x02, 0x10, 0x00, 0x00, 0x00, 0x06, 0x00, 0x00, 0x00,
  0x10, 0x00, 0x00, 0x00, 0x2c, 0x00, 0x00, 0x00, 0x01, 0x00, 0x00, 0x00,
  0x02, 0x00, 0x00, 0x00, 0x18, 0x00, 0x00, 0x00, 0x73, 0x65, 0x71, 0x75,
  0x65, 0x6e, 0x74, 0x69, 0x61, 0x6c, 0x2f, 0x66, 0x6c, 0x61, 0x74, 0x74,
  0x65, 0x6e, 0x2f, 0x43, 0x6f, 0x6e, 0x73, 0x74, 0x00, 0x00, 0x00, 0x00,
  0x34, 0xfd, 0xff, 0xff, 0x3e, 0xfe, 0xff, 0xff, 0x04, 0x00, 0x00, 0x00,
  0x10, 0x00, 0x00, 0x00, 0x02, 0xd5, 0x5c, 0xc0, 0x92, 0x0f, 0x45, 0xc0,
  0xa5, 0x85, 0xac, 0x3c, 0x57, 0x40, 0x1b, 0x40, 0x26, 0xfe, 0xff, 0xff,
  0x10, 0x00, 0x00, 0x00, 0x05, 0x00, 0x00, 0x00, 0x10, 0x00, 0x00, 0x00,
  0x44, 0x00, 0x00, 0x00, 0x01, 0x00, 0x00, 0x00, 0x04, 0x00, 0x00, 0x00,
  0x32, 0x00, 0x00, 0x00, 0x73, 0x65, 0x71, 0x75, 0x65, 0x6e, 0x74, 0x69,
  0x61, 0x6c, 0x2f, 0x64, 0x65, 0x6e, 0x73, 0x65, 0x5f, 0x31, 0x2f, 0x42,
  0x69, 0x61, 0x73, 0x41, 0x64, 0x64, 0x2f, 0x52, 0x65, 0x61, 0x64, 0x56,
  0x61, 0x72, 0x69, 0x61, 0x62, 0x6c, 0x65, 0x4f, 0x70, 0x2f, 0x72, 0x65,
  0x73, 0x6f, 0x75, 0x72, 0x63, 0x65, 0x00, 0x00, 0xa8, 0xfd, 0xff, 0xff,
  0xb2, 0xfe, 0xff, 0xff, 0x04, 0x00, 0x00, 0x00, 0x40, 0x00, 0x00, 0x00,
  0xea, 0x54, 0x08, 0xbf, 0x43, 0x2f, 0xcf, 0xbd, 0x61, 0x76, 0x89, 0xbf,
  0xa8, 0xa3, 0x6d, 0xbe, 0x0b, 0xa1, 0x15, 0xc0, 0xef, 0x1f, 0x50, 0xbf,
  0xd7, 0x5d, 0xf1, 0x3f, 0x31, 0xa3, 0xd8, 0xbd, 0x6f, 0xe8, 0x19, 0xbe,
  0xd1, 0x16, 0x91, 0x3d, 0x1d, 0xdb, 0x73, 0x40, 0xba, 0x83, 0xc7, 0xbe,
  0xac, 0xc2, 0x01, 0xc0, 0x30, 0x4f, 0x38, 0x3d, 0xc7, 0x8e, 0xef, 0xbe,
  0x0c, 0x18, 0xc3, 0xbf, 0xca, 0xfe, 0xff, 0xff, 0x10, 0x00, 0x00, 0x00,
  0x04, 0x00, 0x00, 0x00, 0x10, 0x00, 0x00, 0x00, 0x44, 0x00, 0x00, 0x00,
  0x01, 0x00, 0x00, 0x00, 0x10, 0x00, 0x00, 0x00, 0x30, 0x00, 0x00, 0x00,
  0x73, 0x65, 0x71, 0x75, 0x65, 0x6e, 0x74, 0x69, 0x61, 0x6c, 0x2f, 0x64,
  0x65, 0x6e, 0x73, 0x65, 0x2f, 0x42, 0x69, 0x61, 0x73, 0x41, 0x64, 0x64,
  0x2f, 0x52, 0x65, 0x61, 0x64, 0x56, 0x61, 0x72, 0x69, 0x61, 0x62, 0x6c,
  0x65, 0x4f, 0x70, 0x2f, 0x72, 0x65, 0x73, 0x6f, 0x75, 0x72, 0x63, 0x65,
  0x00, 0x00, 0x00, 0x00, 0x4c, 0xfe, 0xff, 0xff, 0x56, 0xff, 0xff, 0xff,
  0x04, 0x00, 0x00, 0x00, 0x40, 0x00, 0x00, 0x00, 0xdf, 0xf9, 0xb9, 0xbf,
  0xa2, 0xcd, 0x8f, 0xbf, 0x19, 0x51, 0xb5, 0x3b, 0xbe, 0x2a, 0x14, 0x40,
  0x2d, 0xfd, 0xd2, 0xbf, 0xb8, 0xf5, 0xae, 0x3b, 0x2b, 0xe3, 0x83, 0xbf,
  0x33, 0x75, 0xe8, 0xbd, 0xed, 0xbb, 0x6f, 0xbe, 0xb3, 0xcb, 0xf4, 0xbe,
  0x55, 0xaa, 0xfa, 0xbe, 0x79, 0x75, 0xd0, 0xbe, 0xf7, 0xb0, 0x5f, 0x40,
  0xbf, 0x5f, 0x02, 0xbf, 0xc6, 0x7c, 0x4e, 0x3e, 0x07, 0x50, 0xa3, 0xbd,
  0x6e, 0xff, 0xff, 0xff, 0x10, 0x00, 0x00, 0x00, 0x03, 0x00, 0x00, 0x00,
  0x10, 0x00, 0x00, 0x00, 0x48, 0x00, 0x00, 0x00, 0x01, 0x00, 0x00, 0x00,
  0x10, 0x00, 0x00, 0x00, 0x33, 0x00, 0x00, 0x00, 0x73, 0x65, 0x71, 0x75,
  0x65, 0x6e, 0x74, 0x69, 0x61, 0x6c, 0x2f, 0x63, 0x6f, 0x6e, 0x76, 0x32,
  0x64, 0x5f, 0x31, 0x2f, 0x42, 0x69, 0x61, 0x73, 0x41, 0x64, 0x64, 0x2f,
  0x52, 0x65, 0x61, 0x64, 0x56, 0x61, 0x72, 0x69, 0x61, 0x62, 0x6c, 0x65,
  0x4f, 0x70, 0x2f, 0x72, 0x65, 0x73, 0x6f, 0x75, 0x72, 0x63, 0x65, 0x00,
  0x04, 0x00, 0x06, 0x00, 0x04, 0x00, 0x00, 0x00, 0x00, 0x00, 0x06, 0x00,
  0x08, 0x00, 0x04, 0x00, 0x06, 0x00, 0x00, 0x00, 0x04, 0x00, 0x00, 0x00,
  0x20, 0x00, 0x00, 0x00, 0x02, 0xfc, 0xc5, 0xbe, 0xbd, 0x2b, 0xcb, 0xbc,
  0xbe, 0x47, 0x78, 0xbf, 0xc3, 0x5f, 0xa2, 0xbf, 0xa3, 0x9c, 0xdb, 0x3e,
  0xd0, 0xd0, 0x23, 0xbf, 0x5a, 0x9f, 0xa9, 0x3f, 0x80, 0x1d, 0x91, 0xbf,
  0x00, 0x00, 0x0e, 0x00, 0x14, 0x00, 0x04, 0x00, 0x00, 0x00, 0x08, 0x00,
  0x0c, 0x00, 0x10, 0x00, 0x0e, 0x00, 0x00, 0x00, 0x10, 0x00, 0x00, 0x00,
  0x02, 0x00, 0x00, 0x00, 0x10, 0x00, 0x00, 0x00, 0x44, 0x00, 0x00, 0x00,
  0x01, 0x00, 0x00, 0x00, 0x08, 0x00, 0x00, 0x00, 0x31, 0x00, 0x00, 0x00,
  0x73, 0x65, 0x71, 0x75, 0x65, 0x6e, 0x74, 0x69, 0x61, 0x6c, 0x2f, 0x63,
  0x6f, 0x6e, 0x76, 0x32, 0x64, 0x2f, 0x42, 0x69, 0x61, 0x73, 0x41, 0x64,
  0x64, 0x2f, 0x52, 0x65, 0x61, 0x64, 0x56, 0x61, 0x72, 0x69, 0x61, 0x62,
  0x6c, 0x65, 0x4f, 0x70, 0x2f, 0x72, 0x65, 0x73, 0x6f, 0x75, 0x72, 0x63,
  0x65, 0x00, 0x00, 0x00, 0x90, 0xff, 0xff, 0xff, 0x14, 0x00, 0x18, 0x00,
  0x04, 0x00, 0x00, 0x00, 0x08, 0x00, 0x0c, 0x00, 0x10, 0x00, 0x00, 0x00,
  0x00, 0x00, 0x14, 0x00, 0x14, 0x00, 0x00, 0x00, 0x14, 0x00, 0x00, 0x00,
  0x01, 0x00, 0x00, 0x00, 0x20, 0x00, 0x00, 0x00, 0x44, 0x00, 0x00, 0x00,
  0x2c, 0x00, 0x00, 0x00, 0x04, 0x00, 0x00, 0x00, 0x01, 0x00, 0x00, 0x00,
  0x40, 0x00, 0x00, 0x00, 0x03, 0x00, 0x00, 0x00, 0x01, 0x00, 0x00, 0x00,
  0x0c, 0x00, 0x00, 0x00, 0x63, 0x6f, 0x6e, 0x76, 0x32, 0x64, 0x5f, 0x69,
  0x6e, 0x70, 0x75, 0x74, 0x00, 0x00, 0x00, 0x00, 0x04, 0x00, 0x00, 0x00,
  0xff, 0xff, 0xff, 0xff, 0x40, 0x00, 0x00, 0x00, 0x03, 0x00, 0x00, 0x00,
  0x01, 0x00, 0x00, 0x00, 0xfc, 0xff, 0xff, 0xff, 0x04, 0x00, 0x04, 0x00,
  0x04, 0x00, 0x00, 0x00
};

unsigned int model_tflite_len = 13120;// Fill the int in `src/model.cc` here
